{
  "version": "1.0",
  "truncation": null,
  "padding": null,
  "added_tokens": [
    {
      "id": 0,
      "content": "<|endoftext|>",
      "single_word": false,
      "lstrip": false,
      "rstrip": false,
      "normalized": false,
      "special": true
    }
  ],
  "normalizer": null,
  "pre_tokenizer": {
    "type": "Metaspace",
    "replacement": "▁",
    "prepend_scheme": "always",
    "split": true
  },
  "post_processor": null,
  "decoder": {
    "type": "Metaspace",
    "replacement": "▁",
    "prepend_scheme": "always",
    "split": true
  },
  "model": {
    "type": "BPE",
    "dropout": null,
    "unk_token": null,
    "continuing_subword_prefix": null,
    "end_of_word_suffix": null,
    "fuse_unk": false,
    "byte_fallback": false,
    "vocab": {
      "<|endoftext|>": 0,
      "\n": 1,
      " ": 2,
      "!": 3,
      "\"": 4,
      "#": 5,
      "$": 6,
      "%": 7,
      "&": 8,
      "'": 9,
      "(": 10,
      ")": 11,
      "*": 12,
      "+": 13,
      ",": 14,
      "-": 15,
      ".": 16,
      "/": 17,
      "0": 18,
      "1": 19,
      "2": 20,
      "3": 21,
      "4": 22,
      "5": 23,
      "6": 24,
      "7": 25,
      "8": 26,
      "9": 27,
      ":": 28,
      ";": 29,
      "<": 30,
      "=": 31,
      ">": 32,
      "?": 33,
      "@": 34,
      "A": 35,
      "B": 36,
      "C": 37,
      "D": 38,
      "E": 39,
      "F": 40,
      "G": 41,
      "H": 42,
      "I": 43,
      "J": 44,
      "K": 45,
      "L": 46,
      "M": 47,
      "N": 48,
      "O": 49,
      "P": 50,
      "Q": 51,
      "R": 52,
      "S": 53,
      "T": 54,
      "U": 55,
      "V": 56,
      "W": 57,
      "X": 58,
      "Y": 59,
      "Z": 60,
      "[": 61,
      "\\": 62,
      "]": 63,
      "^": 64,
      "_": 65,
      "`": 66,
      "a": 67,
      "b": 68,
      "c": 69,
      "d": 70,
      "e": 71,
      "f": 72,
      "g": 73,
      "h": 74,
      "i": 75,
      "j": 76,
      "k": 77,
      "l": 78,
      "m": 79,
      "n": 80,
      "o": 81,
      "p": 82,
      "q": 83,
      "r": 84,
      "s": 85,
      "t": 86,
      "u": 87,
      "v": 88,
      "w": 89,
      "x": 90,
      "y": 91,
      "z": 92,
      "{": 93,
      "|": 94,
      "}": 95,
      "~": 96,
      "–": 97,
      "▁": 98,
      "▁t": 99,
      "▁a": 100,
      "in": 101,
      "he": 102,
      "re": 103,
      "on": 104,
      "er": 105,
      "▁the": 106,
      "▁s": 107,
      "at": 108,
      "▁w": 109,
      "▁o": 110,
      "nd": 111,
      "▁c": 112,
      "it": 113,
      "es": 114,
      "or": 115,
      "ou": 116,
      "en": 117,
      "is": 118,
      "ing": 119,
      "▁f": 120,
      "▁b": 121,
      "▁p": 122,
      "an": 123,
      "al": 124,
      "ed": 125,
      "▁to": 126,
      "▁m": 127,
      "ar": 128,
      "▁and": 129,
      "▁in": 130,
      "▁of": 131,
      "▁d": 132,
      "ic": 133,
      "le": 134,
      "om": 135,
      "▁h": 136,
      "as": 137,
      "ion": 138,
      "▁th": 139,
      "ll": 140,
      "ent": 141,
      "▁T": 142,
      "▁I": 143,
      "▁l": 144,
      "ve": 145,
      "st": 146,
      "ro": 147,
      "▁y": 148,
      "▁e": 149,
      "▁re": 150,
      "▁n": 151,
      "▁S": 152,
      "ct": 153,
      "▁g": 154,
      "ly": 155,
      ".\n": 156,
      "et": 157,
      "▁you": 158,
      "▁A": 159,
      "▁C": 160,
      "▁is": 161,
      "ot": 162,
      "ut": 163,
      "id": 164,
      "▁for": 165,
      "▁be": 166,
      "▁on": 167,
      "ay": 168,
      "ow": 169,
      "us": 170,
      "ur": 171,
      "ce": 172,
      "ig": 173,
      "im": 174,
      "am": 175,
      "ad": 176,
      "ch": 177,
      "ver": 178,
      "▁M": 179,
      "▁P": 180,
      "il": 181,
      "ol": 182,
      "ith": 183,
      "ation": 184,
      "▁that": 185,
      "▁st": 186,
      "▁B": 187,
      "▁with": 188,
      "ir": 189,
      "▁W": 190,
      "▁it": 191,
      "▁The": 192,
      "se": 193,
      "ra": 194,
      "▁we": 195,
      "ers": 196,
      "▁as": 197,
      "▁he": 198,
      "▁an": 199,
      "ill": 200,
      "▁H": 201,
      "▁D": 202,
      "▁pro": 203,
      "▁F": 204,
      "▁2": 205,
      "un": 206,
      "▁wh": 207,
      "if": 208,
      "▁are": 209,
      "ke": 210,
      "▁R": 211,
      "ge": 212,
      "ter": 213,
      "▁ha": 214,
      "▁1": 215,
      "oo": 216,
      "ul": 217,
      "s,": 218,
      "▁con": 219,
      "ment": 220,
      "ate": 221,
      "pp": 222,
      "ess": 223,
      "her": 224,
      "▁com": 225,
      "el": 226,
      "est": 227,
      "▁or": 228,
      "▁L": 229,
      "ab": 230,
      "▁at": 231,
      "ac": 232,
      "ore": 233,
      "ri": 234,
      "▁E": 235,
      "ld": 236,
      "▁N": 237,
      "▁se": 238,
      "▁G": 239,
      "ort": 240,
      "igh": 241,
      "▁ex": 242,
      "'s": 243,
      "ew": 244,
      "ist": 245,
      "ant": 246,
      "rom": 247,
      "qu": 248,
      "▁(": 249,
      "▁your": 250,
      "▁de": 251,
      "pe": 252,
      "ure": 253,
      "▁O": 254,
      "ity": 255,
      "um": 256,
      "▁v": 257,
      "ive": 258,
      "th": 259,
      "▁was": 260,
      "op": 261,
      "ust": 262,
      "▁have": 263,
      "em": 264,
      "ain": 265,
      "nt": 266,
      "os": 267,
      "s.": 268,
      "art": 269,
      "▁can": 270,
      "▁r": 271,
      "oc": 272,
      "and": 273,
      "ies": 274,
      "▁this": 275,
      "▁al": 276,
      "▁by": 277,
      "▁from": 278,
      "▁us": 279,
      "▁not": 280,
      "▁20": 281,
      "▁sh": 282,
      "ight": 283,
      "▁su": 284,
      "▁ch": 285,
      "ost": 286,
      "▁u": 287,
      "ome": 288,
      "▁will": 289,
      "all": 290,
      "ard": 291,
      "res": 292,
      "▁le": 293,
      "out": 294,
      "od": 295,
      "▁J": 296,
      "ine": 297,
      "ud": 298,
      "ial": 299,
      "our": 300,
      "ould": 301,
      "iv": 302,
      "▁pl": 303,
      "te": 304,
      "▁ab": 305,
      "▁ne": 306,
      "ide": 307,
      "▁wor": 308,
      "per": 309,
      "gh": 310,
      "▁all": 311,
      "red": 312,
      "▁do": 313,
      "▁Th": 314,
      "ag": 315,
      "rou": 316,
      "▁j": 317,
      "king": 318,
      "▁\"": 319,
      "pt": 320,
      "ally": 321,
      "fe": 322,
      "ear": 323,
      "▁U": 324,
      "▁k": 325,
      "ice": 326,
      "▁In": 327,
      "ast": 328,
      "age": 329,
      "ction": 330,
      "▁comp": 331,
      "▁ad": 332,
      "ind": 333,
      "▁has": 334,
      "▁whe": 335,
      "..": 336,
      "▁ma": 337,
      "ip": 338,
      "able": 339,
      "og": 340,
      "one": 341,
      "00": 342,
      "▁but": 343,
      "ther": 344,
      "▁me": 345,
      "are": 346,
      "ack": 347,
      "ich": 348,
      "ry": 349,
      "ite": 350,
      "▁out": 351,
      "very": 352,
      "▁Y": 353,
      "▁en": 354,
      "▁so": 355,
      "ated": 356,
      "▁they": 357,
      "▁up": 358,
      "ong": 359,
      "iz": 360,
      "ime": 361,
      "▁more": 362,
      "▁their": 363,
      "ood": 364,
      "cc": 365,
      "▁K": 366,
      "ia": 367,
      "▁-": 368,
      "ber": 369,
      "pl": 370,
      "so": 371,
      "▁te": 372,
      "▁my": 373,
      "▁cl": 374,
      "ook": 375,
      "ike": 376,
      "du": 377,
      "▁im": 378,
      "for": 379,
      "▁\n": 380,
      "▁one": 381,
      "ance": 382,
      "act": 383,
      "ans": 384,
      "ous": 385,
      "ru": 386,
      "▁St": 387,
      "ign": 388,
      "ame": 389,
      "▁201": 390,
      "▁V": 391,
      "▁cont": 392,
      "▁our": 393,
      "es,": 394,
      "ie": 395,
      "▁about": 396,
      "▁It": 397,
      "ire": 398,
      "▁man": 399,
      "ult": 400,
      "ep": 401,
      "▁3": 402,
      "ib": 403,
      "▁app": 404,
      "▁un": 405,
      "▁which": 406,
      "ase": 407,
      "ree": 408,
      "cl": 409,
      "'t": 410,
      "▁res": 411,
      "ition": 412,
      "ary": 413,
      "▁qu": 414,
      "ace": 415,
      "▁go": 416,
      "reat": 417,
      "▁sa": 418,
      "vel": 419,
      "ap": 420,
      "▁We": 421,
      "▁who": 422,
      "ail": 423,
      "ks": 424,
      "ical": 425,
      "ub": 426,
      "▁also": 427,
      "▁time": 428,
      "▁per": 429,
      "ff": 430,
      "ven": 431,
      "▁off": 432,
      "ence": 433,
      "▁Ch": 434,
      "ue": 435,
      "ile": 436,
      "ne": 437,
      "▁other": 438,
      "ount": 439,
      "▁get": 440,
      "▁like": 441,
      "ach": 442,
      "erv": 443,
      "▁his": 444,
      "▁int": 445,
      "ak": 446,
      "▁any": 447,
      "port": 448,
      "ass": 449,
      "form": 450,
      "▁dis": 451,
      "own": 452,
      "▁some": 453,
      "ond": 454,
      "▁new": 455,
      "▁This": 456,
      "▁them": 457,
      "ark": 458,
      "▁year": 459,
      "ove": 460,
      "ays": 461,
      "▁ro": 462,
      "av": 463,
      "▁part": 464,
      "▁Re": 465,
      "▁ag": 466,
      "ick": 467,
      "▁there": 468,
      "▁when": 469,
      "▁if": 470,
      "ck": 471,
      "▁tr": 472,
      "ob": 473,
      "ations": 474,
      "▁kn": 475,
      "▁over": 476,
      "▁been": 477,
      "▁pe": 478,
      "ose": 479,
      "ress": 480,
      "▁fe": 481,
      "▁am": 482,
      "▁need": 483,
      "▁what": 484,
      "▁He": 485,
      "▁rec": 486,
      "▁spe": 487,
      "▁pre": 488,
      "▁had": 489,
      "▁sc": 490,
      "▁sp": 491,
      "▁would": 492,
      "ough": 493,
      "▁were": 494,
      "▁ar": 495,
      "▁just": 496,
      "ish": 497,
      "ens": 498,
      "ions": 499,
      "y,": 500,
      "ord": 501,
      "ov": 502,
      "nder": 503,
      "es.": 504,
      "▁than": 505,
      "ake": 506,
      "ning": 507,
      "▁work": 508,
      "ild": 509,
      "▁its": 510,
      "ents": 511,
      "int": 512,
      "▁how": 513,
      "ren": 514,
      "ound": 515,
      "▁acc": 516,
      "ater": 517,
      "use": 518,
      "▁5": 519,
      "mer": 520,
      "old": 521,
      "irst": 522,
      "ople": 523,
      "▁bec": 524,
      "ors": 525,
      "wn": 526,
      "▁co": 527,
      "▁4": 528,
      "anc": 529,
      "oy": 530,
      "▁her": 531,
      "▁des": 532,
      "vers": 533,
      "lp": 534,
      "ont": 535,
      "ings": 536,
      "▁You": 537,
      "rough": 538,
      "▁into": 539,
      "iew": 540,
      "ang": 541,
      "ing,": 542,
      "▁may": 543,
      "fter": 544,
      "ade": 545,
      "lic": 546,
      "▁help": 547,
      "▁add": 548,
      "ric": 549,
      "▁people": 550,
      "we": 551,
      "itt": 552,
      "ink": 553,
      "▁no": 554,
      "▁Wh": 555,
      "▁make": 556,
      "▁use": 557,
      "ory": 558,
      "clud": 559,
      "ian": 560,
      "rent": 561,
      "ual": 562,
      "▁prov": 563,
      "ph": 564,
      "s.\n": 565,
      "ft": 566,
      "▁comm": 567,
      "▁well": 568,
      "▁tra": 569,
      "▁bet": 570,
      "▁bu": 571,
      "▁fl": 572,
      "ily": 573,
      "▁most": 574,
      "▁bl": 575,
      "ating": 576,
      "▁ind": 577,
      "▁tw": 578,
      "tern": 579,
      "▁produ": 580,
      "▁know": 581,
      "hed": 582,
      "▁first": 583,
      "end": 584,
      "▁act": 585,
      "ect": 586,
      "ious": 587,
      "ise": 588,
      "ull": 589,
      "▁As": 590,
      "▁only": 591,
      "ple": 592,
      "ram": 593,
      "▁serv": 594,
      "▁said": 595,
      "▁cons": 596,
      "▁po": 597,
      "ause": 598,
      "▁19": 599,
      "com": 600,
      "ons": 601,
      "▁Com": 602,
      "▁through": 603,
      "▁every": 604,
      "▁If": 605,
      "▁very": 606,
      "▁want": 607,
      "▁ph": 608,
      "ific": 609,
      "▁includ": 610,
      "hen": 611,
      "20": 612,
      "ities": 613,
      "▁see": 614,
      "round": 615,
      "fect": 616,
      "▁under": 617,
      "▁Se": 618,
      "▁supp": 619,
      "▁these": 620,
      "▁dif": 621,
      "lect": 622,
      "enc": 623,
      "day": 624,
      "ments": 625,
      "▁back": 626,
      "▁pr": 627,
      "▁she": 628,
      "yst": 629,
      "▁Pro": 630,
      "eth": 631,
      "ert": 632,
      "xt": 633,
      "▁An": 634,
      "les": 635,
      "ates": 636,
      "▁&": 637,
      "▁exper": 638,
      "ject": 639,
      "row": 640,
      "▁De": 641,
      "rit": 642,
      "▁play": 643,
      "▁good": 644,
      "▁em": 645,
      "▁|": 646,
      "line": 647,
      "cess": 648,
      "fore": 649,
      "oth": 650,
      "uch": 651,
      "▁two": 652,
      "ting": 653,
      "▁inv": 654,
      "n't": 655,
      "ful": 656,
      "▁rel": 657,
      "▁after": 658,
      "▁could": 659,
      "oll": 660,
      "urn": 661,
      "erson": 662,
      "▁ke": 663,
      "▁way": 664,
      "▁ass": 665,
      "▁pos": 666,
      "iness": 667,
      "er,": 668,
      "ife": 669,
      "ility": 670,
      "bs": 671,
      "▁'": 672,
      "ience": 673,
      "ular": 674,
      "cial": 675,
      "▁stud": 676,
      "▁reg": 677,
      "iss": 678,
      "▁even": 679,
      "▁bus": 680,
      "erm": 681,
      "▁Un": 682,
      "▁And": 683,
      "aw": 684,
      "▁should": 685,
      "ible": 686,
      "ange": 687,
      "ased": 688,
      "▁For": 689,
      "▁col": 690,
      "▁6": 691,
      "▁great": 692,
      "▁many": 693,
      "sel": 694,
      "olog": 695,
      "▁inc": 696,
      "ystem": 697,
      "ock": 698,
      "ble": 699,
      "▁rem": 700,
      "ool": 701,
      "pect": 702,
      "velop": 703,
      "ed,": 704,
      "▁where": 705,
      "▁sm": 706,
      "▁best": 707,
      "arch": 708,
      "ature": 709,
      "tt": 710,
      "▁ac": 711,
      "▁ra": 712,
      "get": 713,
      "▁fin": 714,
      "▁then": 715,
      "▁high": 716,
      "ower": 717,
      "ath": 718,
      "any": 719,
      "ient": 720,
      "▁New": 721,
      "ative": 722,
      "vent": 723,
      "▁now": 724,
      "ract": 725,
      "▁start": 726,
      "▁Sh": 727,
      "▁$": 728,
      "▁day": 729,
      "▁10": 730,
      "a,": 731,
      "▁Al": 732,
      "ational": 733,
      "▁find": 734,
      "▁sec": 735,
      "▁imp": 736,
      "▁I'": 737,
      "arket": 738,
      "uring": 739,
      "▁min": 740,
      "▁gu": 741,
      "▁7": 742,
      "ward": 743,
      "alth": 744,
      "▁much": 745,
      "▁ent": 746,
      "ing.": 747,
      "ys": 748,
      "▁own": 749,
      "▁car": 750,
      "▁because": 751,
      "▁inst": 752,
      "▁such": 753,
      "▁set": 754,
      "▁right": 755,
      "▁att": 756,
      "▁look": 757,
      "ener": 758,
      "ident": 759,
      "y.": 760,
      "!\n": 761,
      "▁200": 762,
      "ed.": 763,
      "▁loc": 764,
      "▁read": 765,
      "▁requ": 766,
      "▁long": 767,
      "▁Be": 768,
      "view": 769,
      "▁down": 770,
      "▁did": 771,
      "up": 772,
      "▁diffe": 773,
      "ually": 774,
      "▁dec": 775,
      "ict": 776,
      "und": 777,
      "on't": 778,
      "▁take": 779,
      "ash": 780,
      "▁ins": 781,
      "▁too": 782,
      "ied": 783,
      "air": 784,
      "ork": 785,
      "ited": 786,
      "other": 787,
      "▁inte": 788,
      "formation": 789,
      "gan": 790,
      "▁che": 791,
      "io": 792,
      "rib": 793,
      "▁0": 794,
      "hip": 795,
      "▁How": 796,
      "▁sim": 797,
      "▁trans": 798,
      "ices": 799,
      "?\n": 800,
      "ts": 801,
      "▁8": 802,
      "),": 803,
      "▁home": 804,
      "▁before": 805,
      "▁En": 806,
      "ss": 807,
      "ell": 808,
      "▁does": 809,
      "co": 810,
      "▁person": 811,
      "▁being": 812,
      "chn": 813,
      "▁used": 814,
      "▁mon": 815,
      "▁develop": 816,
      "▁again": 817,
      "▁Cl": 818,
      "▁system": 819,
      "▁pres": 820,
      "▁mod": 821,
      "▁On": 822,
      "ix": 823,
      "▁product": 824,
      "amp": 825,
      "...": 826,
      "▁made": 827,
      "▁him": 828,
      "s\n": 829,
      "ank": 830,
      "▁business": 831,
      "gram": 832,
      "ving": 833,
      "ug": 834,
      "ason": 835,
      "▁here": 836,
      "▁av": 837,
      "▁sur": 838,
      "land": 839,
      "ional": 840,
      "▁bel": 841,
      "▁sub": 842,
      "▁fam": 843,
      "▁those": 844,
      "▁br": 845,
      "pr": 846,
      "▁design": 847,
      "▁But": 848,
      ")\n": 849,
      "ffect": 850,
      "▁end": 851,
      "▁Ad": 852,
      "way": 853,
      "ouse": 854,
      "rest": 855,
      "▁show": 856,
      "▁9": 857,
      "ality": 858,
      "ale": 859,
      "chool": 860,
      "▁There": 861,
      "▁Le": 862,
      "▁det": 863,
      "▁num": 864,
      "▁really": 865,
      "its": 866,
      "ince": 867,
      "'re": 868,
      "ollow": 869,
      ").": 870,
      "az": 871,
      "arm": 872,
      "▁world": 873,
      "▁wee": 874,
      "▁som": 875,
      "ave": 876,
      ":\n": 877,
      "\"\n": 878,
      "cept": 879,
      "▁Ar": 880,
      "▁hand": 881,
      "atch": 882,
      "▁call": 883,
      "ers,": 884,
      "▁vis": 885,
      "▁med": 886,
      "▁cre": 887,
      "hes": 888,
      "pen": 889,
      "▁think": 890,
      "▁post": 891,
      "▁life": 892,
      "ustom": 893,
      "▁eas": 894,
      "▁gr": 895,
      "▁art": 896,
      "▁provid": 897,
      "oun": 898,
      "oad": 899,
      "▁market": 900,
      "ly,": 901,
      "olut": 902,
      "ize": 903,
      "▁different": 904,
      "▁while": 905,
      "▁years": 906,
      "ines": 907,
      "▁inter": 908,
      "▁sl": 909,
      "ene": 910,
      "iet": 911,
      "▁So": 912,
      "ather": 913,
      "▁information": 914,
      "▁cur": 915,
      "ics": 916,
      "als": 917,
      "▁cle": 918,
      "ced": 919,
      "▁sign": 920,
      "read": 921,
      "ivers": 922,
      "self": 923,
      "▁lot": 924,
      "▁comple": 925,
      "▁cour": 926,
      "▁Ex": 927,
      "▁support": 928,
      "ation,": 929,
      "ces": 930,
      "▁ret": 931,
      "▁form": 932,
      "▁team": 933,
      "▁ear": 934,
      "ps": 935,
      "▁it's": 936,
      "ata": 937,
      "▁aut": 938,
      "ublic": 939,
      "▁lead": 940,
      "▁Pl": 941,
      "▁each": 942,
      "ever": 943,
      "▁though": 944,
      "▁str": 945,
      "▁They": 946,
      "-1": 947,
      "▁last": 948,
      "▁sk": 949,
      "▁around": 950,
      "▁Te": 951,
      "▁free": 952,
      "der": 953,
      "ax": 954,
      "ty": 955,
      "ital": 956,
      "▁pol": 957,
      "▁going": 958,
      "▁cr": 959,
      "▁mem": 960,
      "▁follow": 961,
      "▁process": 962,
      "led": 963,
      "ues": 964,
      "ween": 965,
      "oot": 966,
      "▁fun": 967,
      "ier": 968,
      "▁online": 969,
      "rand": 970,
      "▁To": 971,
      "▁using": 972,
      "▁say": 973,
      "▁same": 974,
      "▁Q": 975,
      "▁var": 976,
      "▁prof": 977,
      "▁commun": 978,
      "▁count": 979,
      "▁ty": 980,
      "▁don't": 981,
      "iel": 982,
      "uc": 983,
      "▁exp": 984,
      "▁rep": 985,
      "ner": 986,
      "▁pur": 987,
      "▁import": 988,
      "▁still": 989,
      "▁few": 990,
      "aking": 991,
      "▁top": 992,
      "▁care": 993,
      "ah": 994,
      "▁ext": 995,
      "▁adv": 996,
      "▁program": 997,
      "...\n": 998,
      "▁char": 999,
      "▁Bl": 1000,
      "ired": 1001,
      "▁feel": 1002,
      "▁Ind": 1003,
      "▁ed": 1004,
      "▁ser": 1005,
      "irect": 1006,
      "▁both": 1007,
      "▁between": 1008,
      "▁[": 1009,
      "▁plan": 1010,
      "ooking": 1011,
      "▁disc": 1012,
      "000": 1013,
      "ways": 1014,
      "▁list": 1015,
      "ins": 1016,
      "▁book": 1017,
      "ittle": 1018,
      "▁child": 1019,
      "riv": 1020,
      "riend": 1021,
      "▁place": 1022,
      "ized": 1023,
      "▁happ": 1024,
      "ton": 1025,
      "▁avail": 1026,
      "▁i": 1027,
      "▁opt": 1028,
      "▁Ph": 1029,
      "▁keep": 1030,
      "▁gl": 1031,
      "▁poss": 1032,
      "ives": 1033,
      "-t": 1034,
      "▁point": 1035,
      "▁gener": 1036,
      "▁cor": 1037,
      "ages": 1038,
      "man": 1039,
      "ness": 1040,
      "▁All": 1041,
      "▁love": 1042,
      "▁custom": 1043,
      "▁Sc": 1044,
      "orth": 1045,
      "▁techn": 1046,
      "▁lar": 1047,
      "▁val": 1048,
      "▁real": 1049,
      "▁run": 1050,
      "▁experience": 1051,
      "gg": 1052,
      "▁lear": 1053,
      "▁full": 1054,
      "▁del": 1055,
      "▁result": 1056,
      "▁What": 1057,
      "less": 1058,
      "▁found": 1059,
      "▁month": 1060,
      "▁bo": 1061,
      "▁main": 1062,
      "-b": 1063,
      "au": 1064,
      "▁exam": 1065,
      "▁health": 1066,
      "ten": 1067,
      ".com": 1068,
      "ining": 1069,
      "con": 1070,
      "▁ob": 1071,
      "ger": 1072,
      "▁fact": 1073,
      "ross": 1074,
      "roup": 1075,
      "▁When": 1076,
      "-s": 1077,
      "blem": 1078,
      "▁12": 1079,
      "▁state": 1080,
      "ww": 1081,
      "▁partic": 1082,
      "vern": 1083,
      "ically": 1084,
      "lease": 1085,
      "▁better": 1086,
      "▁ev": 1087,
      "▁iss": 1088,
      "ern": 1089,
      "ware": 1090,
      "▁available": 1091,
      "ering": 1092,
      "▁three": 1093,
      "▁Con": 1094,
      "▁def": 1095,
      "21": 1096,
      "stand": 1097,
      "▁pay": 1098,
      "iqu": 1099,
      "imes": 1100,
      "alk": 1101,
      "e,": 1102,
      "▁With": 1103,
      "▁little": 1104,
      "▁during": 1105,
      "▁game": 1106,
      "ural": 1107,
      "▁might": 1108,
      "▁appro": 1109,
      "▁pat": 1110,
      "▁effect": 1111,
      "▁report": 1112,
      "▁always": 1113,
      "ral": 1114,
      "▁open": 1115,
      "ved": 1116,
      "▁company": 1117,
      "ertain": 1118,
      "▁try": 1119,
      "▁without": 1120,
      "▁ref": 1121,
      "▁resp": 1122,
      "ished": 1123,
      "▁number": 1124,
      "att": 1125,
      "▁build": 1126,
      "▁small": 1127,
      "▁cent": 1128,
      "ield": 1129,
      "▁allow": 1130,
      "rol": 1131,
      "ion,": 1132,
      "ames": 1133,
      "▁interest": 1134,
      "ures": 1135,
      "▁important": 1136,
      "▁sure": 1137,
      "▁service": 1138,
      "ateg": 1139,
      "ars": 1140,
      "▁problem": 1141,
      "▁dist": 1142,
      "▁She": 1143,
      "ER": 1144,
      "ared": 1145,
      "▁fil": 1146,
      "▁Tr": 1147,
      "▁stand": 1148,
      "▁rest": 1149,
      "meric": 1150,
      "▁must": 1151,
      "raph": 1152,
      "▁data": 1153,
      "▁Z": 1154,
      "▁big": 1155,
      "ctions": 1156,
      "▁family": 1157,
      "▁webs": 1158,
      "▁soc": 1159,
      "reen": 1160,
      "▁cost": 1161,
      "▁project": 1162,
      "▁come": 1163,
      "▁school": 1164,
      "▁organ": 1165,
      "▁ide": 1166,
      "▁put": 1167,
      "▁contin": 1168,
      "▁Sp": 1169,
      "▁conf": 1170,
      "▁quest": 1171,
      "ential": 1172,
      "▁dri": 1173,
      "▁water": 1174,
      "▁since": 1175,
      "▁wr": 1176,
      "▁Is": 1177,
      "▁Jo": 1178,
      "be": 1179,
      "▁11": 1180,
      "ffic": 1181,
      "kes": 1182,
      "ody": 1183,
      "thing": 1184,
      "▁level": 1185,
      "▁fr": 1186,
      "ation.": 1187,
      "iving": 1188,
      "▁able": 1189,
      "▁Res": 1190,
      "▁including": 1191,
      "aut": 1192,
      "▁ve": 1193,
      "▁things": 1194,
      "a.": 1195,
      "//": 1196,
      "▁sit": 1197,
      "▁incre": 1198,
      "▁Col": 1199,
      "▁inf": 1200,
      "▁proper": 1201,
      "ined": 1202,
      "▁someth": 1203,
      "ets": 1204,
      "ism": 1205,
      "▁got": 1206,
      "iver": 1207,
      "uss": 1208,
      "▁opp": 1209,
      "ling": 1210,
      "▁hard": 1211,
      "▁perform": 1212,
      "▁invest": 1213,
      "▁second": 1214,
      "ision": 1215,
      "pend": 1216,
      "▁another": 1217,
      "ium": 1218,
      "er.": 1219,
      "▁That": 1220,
      "▁head": 1221,
      "▁spec": 1222,
      "▁room": 1223,
      "▁next": 1224,
      "10": 1225,
      "▁grow": 1226,
      "ers.": 1227,
      "▁provide": 1228,
      "ote": 1229,
      "me": 1230,
      "ology": 1231,
      "▁I'm": 1232,
      "▁test": 1233,
      "▁week": 1234,
      "cent": 1235,
      "▁rece": 1236,
      "▁Americ": 1237,
      "inal": 1238,
      "▁May": 1239,
      "here": 1240,
      "▁No": 1241,
      "▁addition": 1242,
      "▁friend": 1243,
      "▁US": 1244,
      "oney": 1245,
      "▁Man": 1246,
      "ute": 1247,
      "▁.": 1248,
      "▁tri": 1249,
      "ember": 1250,
      "▁never": 1251,
      "▁eng": 1252,
      "▁equ": 1253,
      "▁light": 1254,
      "ccess": 1255,
      "▁Post": 1256,
      "▁At": 1257,
      "rist": 1258,
      "ploy": 1259,
      "ush": 1260,
      "▁cas": 1261,
      "▁within": 1262,
      "ants": 1263,
      "ator": 1264,
      ",\"": 1265,
      "▁give": 1266,
      "▁old": 1267,
      "▁mill": 1268,
      "▁18": 1269,
      "▁something": 1270,
      "▁Or": 1271,
      "▁win": 1272,
      "icle": 1273,
      "▁current": 1274,
      "▁power": 1275,
      "rence": 1276,
      "▁pass": 1277,
      "ivid": 1278,
      "▁rese": 1279,
      "ior": 1280,
      "▁est": 1281,
      "orn": 1282,
      "ann": 1283,
      "iversity": 1284,
      "ortun": 1285,
      "▁feature": 1286,
      "▁mov": 1287,
      "▁Im": 1288,
      "▁Fr": 1289,
      "▁order": 1290,
      "▁less": 1291,
      "▁mus": 1292,
      "ment,": 1293,
      "ense": 1294,
      "ever,": 1295,
      "ino": 1296,
      "gin": 1297,
      "▁ess": 1298,
      "ron": 1299,
      "▁Comm": 1300,
      "▁My": 1301,
      "-f": 1302,
      "ruct": 1303,
      "▁class": 1304,
      "gr": 1305,
      "▁Co": 1306,
      "▁oper": 1307,
      "▁special": 1308,
      "ott": 1309,
      ",000": 1310,
      "://": 1311,
      "▁15": 1312,
      "▁expl": 1313,
      "▁site": 1314,
      "ention": 1315,
      "pos": 1316,
      "▁el": 1317,
      "▁job": 1318,
      "erg": 1319,
      "tain": 1320,
      "▁direct": 1321,
      "▁bre": 1322,
      "22": 1323,
      "▁Mar": 1324,
      "let": 1325,
      "▁case": 1326,
      "▁intern": 1327,
      "ienc": 1328,
      "▁website": 1329,
      "bers": 1330,
      "eng": 1331,
      "▁sing": 1332,
      "▁/": 1333,
      "oor": 1334,
      "ider": 1335,
      "▁bro": 1336,
      "▁public": 1337,
      "▁Fe": 1338,
      "els": 1339,
      "oss": 1340,
      "por": 1341,
      "▁pop": 1342,
      "joy": 1343,
      "outh": 1344,
      "▁prote": 1345,
      "▁bas": 1346,
      "omm": 1347,
      "▁working": 1348,
      "▁review": 1349,
      "▁Su": 1350,
      "▁view": 1351,
      "▁cap": 1352,
      "▁Our": 1353,
      "orm": 1354,
      "▁Rep": 1355,
      "-c": 1356,
      "▁#": 1357,
      "▁phot": 1358,
      "▁looking": 1359,
      "ies,": 1360,
      "ieve": 1361,
      "▁applic": 1362,
      "br": 1363,
      "▁understand": 1364,
      "▁met": 1365,
      "mber": 1366,
      "iron": 1367,
      "ird": 1368,
      "o,": 1369,
      "ym": 1370,
      "li": 1371,
      "▁buy": 1372,
      "▁course": 1373,
      "ered": 1374,
      "dition": 1375,
      "oint": 1376,
      "▁kind": 1377,
      "▁access": 1378,
      "▁It's": 1379,
      "▁meet": 1380,
      "ability": 1381,
      "▁seem": 1382,
      "aterial": 1383,
      "▁vide": 1384,
      "▁impro": 1385,
      "The": 1386,
      "min": 1387,
      "on,": 1388,
      ".\"\n": 1389,
      "ists": 1390,
      "IN": 1391,
      "▁writ": 1392,
      "▁profess": 1393,
      "▁wom": 1394,
      "ably": 1395,
      "▁present": 1396,
      "▁One": 1397,
      "▁quality": 1398,
      "▁hour": 1399,
      "▁house": 1400,
      "▁thing": 1401,
      "▁Me": 1402,
      "▁Fl": 1403,
      "▁colle": 1404,
      "-p": 1405,
      "▁Car": 1406,
      "load": 1407,
      "▁prom": 1408,
      "▁tak": 1409,
      "atter": 1410,
      "▁Can": 1411,
      "▁Cont": 1412,
      "work": 1413,
      "ope": 1414,
      "▁leg": 1415,
      "▁against": 1416,
      "▁term": 1417,
      "ump": 1418,
      "▁activ": 1419,
      "▁let": 1420,
      "▁ca": 1421,
      "ients": 1422,
      "▁fac": 1423,
      "▁local": 1424,
      "ode": 1425,
      "▁Pr": 1426,
      "ves": 1427,
      "hor": 1428,
      "▁hum": 1429,
      "▁account": 1430,
      "▁making": 1431,
      "ret": 1432,
      "▁group": 1433,
      "▁30": 1434,
      "▁visit": 1435,
      "enef": 1436,
      "▁indust": 1437,
      "▁dev": 1438,
      "lish": 1439,
      "ik": 1440,
      "▁const": 1441,
      "itive": 1442,
      "▁today": 1443,
      "50": 1444,
      "▁Eng": 1445,
      "ox": 1446,
      "ged": 1447,
      "-d": 1448,
      "tend": 1449,
      "▁services": 1450,
      "▁dem": 1451,
      "30": 1452,
      "▁air": 1453,
      "'ll": 1454,
      "▁govern": 1455,
      "▁pract": 1456,
      "ified": 1457,
      "▁App": 1458,
      "conom": 1459,
      "19": 1460,
      "▁conne": 1461,
      "▁you're": 1462,
      "▁having": 1463,
      "▁large": 1464,
      "ately": 1465,
      "▁ann": 1466,
      "▁actually": 1467,
      "▁htt": 1468,
      "▁change": 1469,
      "ividual": 1470,
      "▁sal": 1471,
      "▁it.": 1472,
      "▁event": 1473,
      "▁name": 1474,
      "room": 1475,
      "ocus": 1476,
      "▁Ne": 1477,
      "▁turn": 1478,
      "▁Am": 1479,
      "▁along": 1480,
      "med": 1481,
      "olution": 1482,
      "ify": 1483,
      "app": 1484,
      "▁chang": 1485,
      "of": 1486,
      "▁\"I": 1487,
      "ream": 1488,
      "▁pa": 1489,
      "▁complete": 1490,
      "▁Your": 1491,
      "iven": 1492,
      "▁night": 1493,
      "▁,": 1494,
      "▁mar": 1495,
      "▁enjoy": 1496,
      "▁days": 1497,
      "ON": 1498,
      "▁By": 1499,
      "▁away": 1500,
      "▁tru": 1501,
      "es.\n": 1502,
      "ipp": 1503,
      "ission": 1504,
      "▁Christ": 1505,
      "vious": 1506,
      "▁sw": 1507,
      "ethod": 1508,
      "▁four": 1509,
      "▁children": 1510,
      "ised": 1511,
      "▁Comp": 1512,
      "▁based": 1513,
      "agement": 1514,
      "▁unt": 1515,
      "arent": 1516,
      "ording": 1517,
      "une": 1518,
      "fer": 1519,
      "▁par": 1520,
      "ES": 1521,
      "▁money": 1522,
      "▁why": 1523,
      "AR": 1524,
      "ently": 1525,
      "AT": 1526,
      "▁ask": 1527,
      "▁certain": 1528,
      "▁food": 1529,
      "▁deal": 1530,
      "▁hist": 1531,
      "▁These": 1532,
      "▁possible": 1533,
      "▁bit": 1534,
      "▁line": 1535,
      "▁Cent": 1536,
      "duct": 1537,
      "▁law": 1538,
      "oci": 1539,
      "▁word": 1540,
      "▁compan": 1541,
      "▁anal": 1542,
      "▁material": 1543,
      "AN": 1544,
      "book": 1545,
      "ery": 1546,
      "▁toget": 1547,
      "▁control": 1548,
      "veral": 1549,
      "▁together": 1550,
      "pecial": 1551,
      "▁199": 1552,
      "▁research": 1553,
      "ec": 1554,
      "▁Do": 1555,
      "▁elect": 1556,
      "▁expect": 1557,
      "▁individual": 1558,
      "▁ele": 1559,
      "▁success": 1560,
      "ript": 1561,
      "jor": 1562,
      "▁hot": 1563,
      "▁offer": 1564,
      "ograph": 1565,
      "▁social": 1566,
      "▁short": 1567,
      "▁learn": 1568,
      "▁often": 1569,
      "▁beh": 1570,
      "▁detail": 1571,
      "ards": 1572,
      "▁near": 1573,
      "part": 1574,
      "▁Ste": 1575,
      "▁creat": 1576,
      "▁benef": 1577,
      "aring": 1578,
      "▁net": 1579,
      "▁Wor": 1580,
      "▁require": 1581,
      "▁es": 1582,
      "ories": 1583,
      "ats": 1584,
      ").\n": 1585,
      "ted": 1586,
      "▁typ": 1587,
      "▁mult": 1588,
      "yle": 1589,
      "▁students": 1590,
      "▁check": 1591,
      "ina": 1592,
      "▁conc": 1593,
      "aster": 1594,
      "ization": 1595,
      "aim": 1596,
      "▁Jan": 1597,
      "▁create": 1598,
      "-m": 1599,
      "atic": 1600,
      "iety": 1601,
      "▁focus": 1602,
      "ney": 1603,
      "▁easy": 1604,
      "osp": 1605,
      "▁soft": 1606,
      "▁land": 1607,
      "▁done": 1608,
      "ribut": 1609,
      "▁past": 1610,
      "▁move": 1611,
      "▁area": 1612,
      "▁include": 1613,
      "uro": 1614,
      "▁pot": 1615,
      "▁non": 1616,
      "▁employ": 1617,
      "▁la": 1618,
      "▁low": 1619,
      "rap": 1620,
      "▁trad": 1621,
      "inc": 1622,
      "▁ste": 1623,
      "ured": 1624,
      "hn": 1625,
      "▁Ab": 1626,
      "▁After": 1627,
      "ok": 1628,
      "indow": 1629,
      "▁several": 1630,
      "▁Des": 1631,
      "▁makes": 1632,
      "ains": 1633,
      "▁14": 1634,
      "▁University": 1635,
      "urs": 1636,
      "ising": 1637,
      "▁professional": 1638,
      "▁sol": 1639,
      "e.": 1640,
      "▁become": 1641,
      "r.": 1642,
      "ai": 1643,
      "▁16": 1644,
      "ived": 1645,
      "ination": 1646,
      "ancial": 1647,
      "▁price": 1648,
      "▁getting": 1649,
      "▁until": 1650,
      "▁live": 1651,
      "▁alread": 1652,
      "▁Med": 1653,
      "viron": 1654,
      "yn": 1655,
      "▁Br": 1656,
      "ley": 1657,
      "enn": 1658,
      "▁Home": 1659,
      "side": 1660,
      "▁treat": 1661,
      "▁side": 1662,
      "▁cou": 1663,
      "▁particular": 1664,
      "uck": 1665,
      "yl": 1666,
      "▁ce": 1667,
      "uture": 1668,
      "▁fore": 1669,
      "ration": 1670,
      "▁opportun": 1671,
      "▁dra": 1672,
      "▁State": 1673,
      "uf": 1674,
      "▁reason": 1675,
      "▁clean": 1676,
      "oice": 1677,
      "12": 1678,
      "▁left": 1679,
      "itc": 1680,
      "▁quick": 1681,
      "ng": 1682,
      "▁following": 1683,
      "▁means": 1684,
      "ober": 1685,
      "▁example": 1686,
      "err": 1687,
      "▁personal": 1688,
      "▁Che": 1689,
      "iting": 1690,
      "▁Dis": 1691,
      "▁enough": 1692,
      "oose": 1693,
      "▁God": 1694,
      "'ve": 1695,
      "▁ever": 1696,
      "▁lim": 1697,
      "▁fund": 1698,
      "▁far": 1699,
      "▁major": 1700,
      "1,": 1701,
      "▁mind": 1702,
      "▁Tra": 1703,
      "▁et": 1704,
      "▁already": 1705,
      "ource": 1706,
      "▁tool": 1707,
      "▁comes": 1708,
      "▁2020": 1709,
      "▁community": 1710,
      "▁pain": 1711,
      "augh": 1712,
      "▁17": 1713,
      "▁tre": 1714,
      "aff": 1715,
      "▁method": 1716,
      "ury": 1717,
      "▁mean": 1718,
      "irm": 1719,
      "▁2017": 1720,
      "▁Not": 1721,
      "▁record": 1722,
      "▁brand": 1723,
      "▁However,": 1724,
      "▁purch": 1725,
      "ique": 1726,
      "▁specific": 1727,
      "▁More": 1728,
      "ency": 1729,
      "ither": 1730,
      "▁Pre": 1731,
      "OR": 1732,
      "rop": 1733,
      "▁store": 1734,
      "▁*": 1735,
      "lling": 1736,
      "ift": 1737,
      "elf": 1738,
      "alf": 1739,
      "▁stay": 1740,
      "S.": 1741,
      "▁beaut": 1742,
      "▁13": 1743,
      "▁across": 1744,
      "ia,": 1745,
      "▁season": 1746,
      "▁X": 1747,
      "ids": 1748,
      "the": 1749,
      "▁development": 1750,
      "▁offic": 1751,
      "▁country": 1752,
      "▁web": 1753,
      "▁2018": 1754,
      "▁mach": 1755,
      "▁happen": 1756,
      "c.": 1757,
      "▁thought": 1758,
      "lished": 1759,
      "▁doing": 1760,
      "▁music": 1761,
      "ills": 1762,
      "▁video": 1763,
      "opp": 1764,
      "urity": 1765,
      "▁educ": 1766,
      "sw": 1767,
      "urther": 1768,
      "▁Serv": 1769,
      "▁ens": 1770,
      "▁condition": 1771,
      "▁invol": 1772,
      "▁port": 1773,
      "▁hold": 1774,
      "▁contact": 1775,
      "▁key": 1776,
      "▁Oct": 1777,
      "....": 1778,
      "ex": 1779,
      "▁perfect": 1780,
      "ufact": 1781,
      "▁fav": 1782,
      "▁once": 1783,
      "vert": 1784,
      "▁step": 1785,
      "▁Inst": 1786,
      "crib": 1787,
      "▁recomm": 1788,
      "most": 1789,
      "▁camp": 1790,
      "▁100": 1791,
      "-2": 1792,
      "▁:": 1793,
      "▁recommend": 1794,
      "▁dr": 1795,
      "▁occ": 1796,
      "▁hig": 1797,
      "ion.": 1798,
      "▁tem": 1799,
      "▁Gu": 1800,
      "▁24": 1801,
      "▁government": 1802,
      "▁vers": 1803,
      "▁2019": 1804,
      "ly.": 1805,
      "▁least": 1806,
      "EN": 1807,
      "osed": 1808,
      "▁page": 1809,
      "ilities": 1810,
      "▁Bu": 1811,
      "▁products": 1812,
      "▁orig": 1813,
      "▁called": 1814,
      "▁Gr": 1815,
      "▁prep": 1816,
      "idd": 1817,
      "▁Ass": 1818,
      "cell": 1819,
      "ister": 1820,
      "ead": 1821,
      "irc": 1822,
      "▁single": 1823,
      "▁redu": 1824,
      "▁city": 1825,
      "ay,": 1826,
      "obile": 1827,
      "i,": 1828,
      "now": 1829,
      "▁econom": 1830,
      "▁Min": 1831,
      "▁times": 1832,
      "▁clear": 1833,
      "11": 1834,
      "ford": 1835,
      "cript": 1836,
      "verage": 1837,
      "▁came": 1838,
      "▁item": 1839,
      "ference": 1840,
      "▁war": 1841,
      "urance": 1842,
      "vironment": 1843,
      "by": 1844,
      "ane": 1845,
      "▁2016": 1846,
      "iod": 1847,
      "▁content": 1848,
      "▁Qu": 1849,
      "oard": 1850,
      "itor": 1851,
      "▁25": 1852,
      "ones": 1853,
      "▁comb": 1854,
      "▁John": 1855,
      "▁strong": 1856,
      "nes": 1857,
      "ed.\n": 1858,
      "▁charact": 1859,
      "▁begin": 1860,
      "▁says": 1861,
      "▁ident": 1862,
      "▁cred": 1863,
      "ball": 1864,
      "▁compet": 1865,
      "▁men": 1866,
      "urch": 1867,
      "ctor": 1868,
      "▁Intern": 1869,
      "▁future": 1870,
      "ergy": 1871,
      "gle": 1872,
      "▁Em": 1873,
      "▁...": 1874,
      "▁value": 1875,
      "▁vol": 1876,
      "▁prob": 1877,
      "▁share": 1878,
      "▁space": 1879,
      "aur": 1880,
      "▁amount": 1881,
      "▁1.": 1882,
      "▁jo": 1883,
      "▁industry": 1884,
      "▁consider": 1885,
      "▁works": 1886,
      "s:": 1887,
      "al,": 1888,
      "▁sum": 1889,
      "▁type": 1890,
      "▁cell": 1891,
      "▁due": 1892,
      "▁priv": 1893,
      "▁American": 1894,
      "▁Ke": 1895,
      "ing.\n": 1896,
      "irl": 1897,
      "AS": 1898,
      "▁position": 1899,
      "▁Go": 1900,
      "ances": 1901,
      "▁return": 1902,
      "lex": 1903,
      "▁mom": 1904,
      "ots": 1905,
      "▁Aug": 1906,
      "atural": 1907,
      "▁strateg": 1908,
      "▁di": 1909,
      "isk": 1910,
      "▁Apr": 1911,
      "ED": 1912,
      "▁body": 1913,
      "!!": 1914,
      "▁2021": 1915,
      "▁offers": 1916,
      "▁sound": 1917,
      "▁Pe": 1918,
      "▁rele": 1919,
      "▁search": 1920,
      "▁diff": 1921,
      "▁fre": 1922,
      "ibility": 1923,
      "▁close": 1924,
      "▁needs": 1925,
      "AL": 1926,
      "-0": 1927,
      "▁ant": 1928,
      "▁went": 1929,
      "▁yet": 1930,
      "▁field": 1931,
      "acy": 1932,
      "▁women": 1933,
      "anks": 1934,
      "▁card": 1935,
      "▁United": 1936,
      "▁Now": 1937,
      "-l": 1938,
      "ply": 1939,
      "▁mot": 1940,
      "▁Bro": 1941,
      "▁cut": 1942,
      "ilar": 1943,
      "▁appear": 1944,
      "▁bar": 1945,
      "▁respons": 1946,
      "▁wa": 1947,
      "▁study": 1948,
      "son": 1949,
      "▁PM": 1950,
      "▁given": 1951,
      "▁known": 1952,
      "▁minut": 1953,
      "ilt": 1954,
      "ape": 1955,
      "▁cult": 1956,
      "resent": 1957,
      "▁function": 1958,
      "ask": 1959,
      "▁later": 1960,
      "▁improve": 1961,
      "▁common": 1962,
      "rodu": 1963,
      "▁among": 1964,
      "ee": 1965,
      "18": 1966,
      "▁range": 1967,
      "▁bring": 1968,
      "▁human": 1969,
      "▁hy": 1970,
      "▁above": 1971,
      "▁started": 1972,
      "ides": 1973,
      "not": 1974,
      "▁face": 1975,
      "▁repl": 1976,
      "▁Cor": 1977,
      "▁address": 1978,
      "▁tot": 1979,
      "▁Read": 1980,
      "ensive": 1981,
      "▁various": 1982,
      "▁companies": 1983,
      "▁whole": 1984,
      "▁chall": 1985,
      "▁signific": 1986,
      "ocu": 1987,
      "▁financial": 1988,
      "▁it,": 1989,
      "▁question": 1990,
      "irt": 1991,
      "▁dig": 1992,
      "▁author": 1993,
      "ledge": 1994,
      "full": 1995,
      "▁ey": 1996,
      "▁Cal": 1997,
      "▁pack": 1998,
      "▁story": 1999,
      "▁super": 2000,
      "▁Tw": 2001,
      "▁March": 2002,
      "▁front": 2003,
      "pecially": 2004,
      "▁mil": 2005,
      "ental": 2006,
      "▁someone": 2007,
      "▁manag": 2008,
      "US": 2009,
      "▁Acc": 2010,
      "▁wond": 2011,
      "▁50": 2012,
      "an,": 2013,
      "▁seen": 2014,
      "uff": 2015,
      "▁whether": 2016,
      "ruction": 2017,
      "▁install": 2018,
      "▁model": 2019,
      "fort": 2020,
      "▁email": 2021,
      "▁While": 2022,
      "itch": 2023,
      "icult": 2024,
      "che": 2025,
      "rict": 2026,
      "▁I've": 2027,
      "▁members": 2028,
      "]\n": 2029,
      "w.": 2030,
      "▁heart": 2031,
      "eral": 2032,
      "▁Us": 2033,
      "ored": 2034,
      "ief": 2035,
      "▁cal": 2036,
      "though": 2037,
      "ille": 2038,
      "astic": 2039,
      "▁z": 2040,
      "wards": 2041,
      "umb": 2042,
      "ourn": 2043,
      "idence": 2044,
      "▁Pol": 2045,
      "▁lo": 2046,
      "▁Some": 2047,
      "ก": 2048,
      "ข": 2049,
      "ฃ": 2050,
      "ค": 2051,
      "ฅ": 2052,
      "ฆ": 2053,
      "ง": 2054,
      "จ": 2055,
      "ฉ": 2056,
      "ช": 2057,
      "ซ": 2058,
      "ฌ": 2059,
      "ญ": 2060,
      "ฎ": 2061,
      "ฏ": 2062,
      "ฐ": 2063,
      "ฑ": 2064,
      "ฒ": 2065,
      "ณ": 2066,
      "ด": 2067,
      "ต": 2068,
      "ถ": 2069,
      "ท": 2070,
      "ธ": 2071,
      "น": 2072,
      "บ": 2073,
      "ป": 2074,
      "ผ": 2075,
      "ฝ": 2076,
      "พ": 2077,
      "ฟ": 2078,
      "ภ": 2079,
      "ม": 2080,
      "ย": 2081,
      "ร": 2082,
      "ฤ": 2083,
      "ล": 2084,
      "ฦ": 2085,
      "ว": 2086,
      "ศ": 2087,
      "ษ": 2088,
      "ส": 2089,
      "ห": 2090,
      "ฬ": 2091,
      "อ": 2092,
      "ฮ": 2093,
      "ฯ": 2094,
      "ะ": 2095,
      "ั": 2096,
      "า": 2097,
      "ำ": 2098,
      "ิ": 2099,
      "ี": 2100,
      "ึ": 2101,
      "ื": 2102,
      "ุ": 2103,
      "ู": 2104,
      "ฺ": 2105,
      "฿": 2106,
      "เ": 2107,
      "แ": 2108,
      "โ": 2109,
      "ใ": 2110,
      "ไ": 2111,
      "ๅ": 2112,
      "ๆ": 2113,
      "็": 2114,
      "่": 2115,
      "้": 2116,
      "๊": 2117,
      "๋": 2118,
      "์": 2119,
      "ํ": 2120,
      "๏": 2121,
      "๐": 2122,
      "๑": 2123,
      "๒": 2124,
      "๓": 2125,
      "๔": 2126,
      "๕": 2127,
      "๖": 2128,
      "๗": 2129,
      "๘": 2130,
      "๙": 2131,
      "—": 2132,
      "าร": 2133,
      "ี่": 2134,
      "่า": 2135,
      "อง": 2136,
      "ที่": 2137,
      "การ": 2138,
      "▁เ": 2139,
      "้า": 2140,
      "ัน": 2141,
      "ับ": 2142,
      "ด้": 2143,
      "าม": 2144,
      "าก": 2145,
      "ระ": 2146,
      "แล": 2147,
      "่อ": 2148,
      "าย": 2149,
      "ได้": 2150,
      "ือ": 2151,
      "้น": 2152,
      "ใน": 2153,
      "็น": 2154,
      "่ง": 2155,
      "ให": 2156,
      "่น": 2157,
      "เป": 2158,
      "มี": 2159,
      "และ": 2160,
      "ัง": 2161,
      "ีย": 2162,
      "คร": 2163,
      "าน": 2164,
      "ของ": 2165,
      "ม่": 2166,
      "อย": 2167,
      "▁ส": 2168,
      "จะ": 2169,
      "เล": 2170,
      "ิน": 2171,
      "คว": 2172,
      "ให้": 2173,
      "รา": 2174,
      "ว่า": 2175,
      "เป็น": 2176,
      "อน": 2177,
      "หน": 2178,
      "ัก": 2179,
      "มา": 2180,
      "ประ": 2181,
      "ความ": 2182,
      "ไม่": 2183,
      "เก": 2184,
      "ื่อ": 2185,
      "ี้": 2186,
      "้ง": 2187,
      "ริ": 2188,
      "่ว": 2189,
      "ิด": 2190,
      "หล": 2191,
      "าง": 2192,
      "่าง": 2193,
      "ู้": 2194,
      "▁แ": 2195,
      "้อง": 2196,
      "ร์": 2197,
      "รับ": 2198,
      "้อ": 2199,
      "ไป": 2200,
      "ตั": 2201,
      "นี้": 2202,
      "เด": 2203,
      "เร": 2204,
      "▁ก": 2205,
      "ทำ": 2206,
      "อก": 2207,
      "วย": 2208,
      "จาก": 2209,
      "เพ": 2210,
      "คุ": 2211,
      "▁และ": 2212,
      "เข": 2213,
      "กับ": 2214,
      "่อง": 2215,
      "ุด": 2216,
      "ตร": 2217,
      "ัด": 2218,
      "▁โ": 2219,
      "วิ": 2220,
      "เท": 2221,
      "ั้น": 2222,
      "อบ": 2223,
      "น์": 2224,
      "ผู้": 2225,
      "ใช": 2226,
      "อา": 2227,
      "▁บ": 2228,
      "คุณ": 2229,
      "กล": 2230,
      "ติ": 2231,
      "เว": 2232,
      "▁ค": 2233,
      "▁น": 2234,
      "กร": 2235,
      "ดี": 2236,
      "บบ": 2237,
      "อย่าง": 2238,
      "เส": 2239,
      "ทั": 2240,
      "อล": 2241,
      "้าน": 2242,
      "ต้อง": 2243,
      "▁ห": 2244,
      "ภา": 2245,
      "ู่": 2246,
      "อร์": 2247,
      "่าน": 2248,
      "ึง": 2249,
      "รี": 2250,
      "กัน": 2251,
      "▁พ": 2252,
      "มาก": 2253,
      "ต่": 2254,
      "ทุ": 2255,
      "้ว": 2256,
      "งาน": 2257,
      "ื่อง": 2258,
      "ก็": 2259,
      "ึ่ง": 2260,
      "่ม": 2261,
      "ทาง": 2262,
      "ตัว": 2263,
      "สิ": 2264,
      "▁อ": 2265,
      "ไล": 2266,
      "หม": 2267,
      "▁ร": 2268,
      "อต": 2269,
      "ลา": 2270,
      "คน": 2271,
      "ล็": 2272,
      "ดย": 2273,
      "็บ": 2274,
      "่าย": 2275,
      "วัน": 2276,
      "ใจ": 2277,
      "เล่น": 2278,
      "ด้วย": 2279,
      "รม": 2280,
      "▁ที่": 2281,
      "ไลน์": 2282,
      "ใช้": 2283,
      "ผล": 2284,
      "รือ": 2285,
      "้าง": 2286,
      "แล้ว": 2287,
      "อนไลน์": 2288,
      "เม": 2289,
      "ทย": 2290,
      "เง": 2291,
      "สุด": 2292,
      "ล็อต": 2293,
      "ารถ": 2294,
      "ี่ย": 2295,
      "ต่อ": 2296,
      "ามารถ": 2297,
      "ูก": 2298,
      "สำ": 2299,
      "เงิน": 2300,
      "เช": 2301,
      "ิต": 2302,
      "ลง": 2303,
      "▁จ": 2304,
      "อด": 2305,
      "▁เพ": 2306,
      "ออนไลน์": 2307,
      "ัย": 2308,
      "ทั้ง": 2309,
      "ขึ": 2310,
      "ขึ้น": 2311,
      "ีก": 2312,
      "ชา": 2313,
      "้อม": 2314,
      "▁ซ": 2315,
      "ถึง": 2316,
      "ที": 2317,
      "เต": 2318,
      "นา": 2319,
      "เห": 2320,
      "เข้า": 2321,
      "บริ": 2322,
      "ัญ": 2323,
      "ภาพ": 2324,
      "สม": 2325,
      "แบบ": 2326,
      "อยู่": 2327,
      "บอล": 2328,
      "▁การ": 2329,
      "เกม": 2330,
      "▁ต": 2331,
      "หา": 2332,
      "สามารถ": 2333,
      "ทุก": 2334,
      "คา": 2335,
      "ดู": 2336,
      "▁ป": 2337,
      "ต์": 2338,
      "หน้า": 2339,
      "เรา": 2340,
      "เน": 2341,
      "เจ": 2342,
      "▁เป": 2343,
      "้ำ": 2344,
      "มพ": 2345,
      "ยัง": 2346,
      "ียน": 2347,
      "สน": 2348,
      "นั้น": 2349,
      "ึก": 2350,
      "▁ม": 2351,
      "▁ใน": 2352,
      "รง": 2353,
      "บา": 2354,
      "▁ข": 2355,
      "หรับ": 2356,
      "▁ล": 2357,
      "ฟรี": 2358,
      "วน": 2359,
      "เคร": 2360,
      "ช่ว": 2361,
      "ไร": 2362,
      "จำ": 2363,
      "โน": 2364,
      "คล": 2365,
      "ปร": 2366,
      "ั่น": 2367,
      "่วน": 2368,
      "แน": 2369,
      "เพื่อ": 2370,
      "ไทย": 2371,
      "ียง": 2372,
      "่อน": 2373,
      "ื้อ": 2374,
      "▁โดย": 2375,
      "กระ": 2376,
      "่าว": 2377,
      "ณ์": 2378,
      "ตาม": 2379,
      "สร": 2380,
      "▁แต่": 2381,
      "ชน": 2382,
      "▁มี": 2383,
      "ออก": 2384,
      "าว": 2385,
      "นัก": 2386,
      "ิก": 2387,
      "ิจ": 2388,
      "▁ไม่": 2389,
      "▁ซึ่ง": 2390,
      "รั": 2391,
      "ิง": 2392,
      "กำ": 2393,
      "ษา": 2394,
      "ในการ": 2395,
      "วม": 2396,
      "สู": 2397,
      "นัน": 2398,
      "วก": 2399,
      "ือน": 2400,
      "โล": 2401,
      "ย์": 2402,
      "สด": 2403,
      "▁เป็น": 2404,
      "เว็บ": 2405,
      "ือก": 2406,
      "วั": 2407,
      "▁สล็อต": 2408,
      "ต่าง": 2409,
      "เทศ": 2410,
      "ใหม่": 2411,
      "ละ": 2412,
      "รู้": 2413,
      "นำ": 2414,
      "▁เว": 2415,
      "เลย": 2416,
      "▁เก": 2417,
      "ื่น": 2418,
      "ูล": 2419,
      "กว่า": 2420,
      "▁ได้": 2421,
      "ครั": 2422,
      "ทำให้": 2423,
      "หรือ": 2424,
      "หาร": 2425,
      "▁หรือ": 2426,
      "▁ย": 2427,
      "ชี": 2428,
      "รก": 2429,
      "วง": 2430,
      "เรื่อง": 2431,
      "พร": 2432,
      "▁ด": 2433,
      "ค้า": 2434,
      "็ก": 2435,
      "ตั้ง": 2436,
      "คม": 2437,
      "โดย": 2438,
      "ส์": 2439,
      "▁ช": 2440,
      "แต่": 2441,
      "ผ่าน": 2442,
      "แท": 2443,
      "เอ": 2444,
      "เบ": 2445,
      "าส": 2446,
      "คาร": 2447,
      "ราะ": 2448,
      "อีก": 2449,
      "ที่สุด": 2450,
      "ริง": 2451,
      "ประเทศ": 2452,
      "เดิ": 2453,
      "จัด": 2454,
      "ธิ": 2455,
      "หลาย": 2456,
      "มพัน": 2457,
      "สำหรับ": 2458,
      "พนัน": 2459,
      "สล็อต": 2460,
      "ที่จะ": 2461,
      "▁เม": 2462,
      "บน": 2463,
      "หลัง": 2464,
      "บริการ": 2465,
      "เซ": 2466,
      "▁ถ": 2467,
      "ส่วน": 2468,
      "เอง": 2469,
      "เลือก": 2470,
      "มือ": 2471,
      "ปล": 2472,
      "เย": 2473,
      "88": 2474,
      "น้ำ": 2475,
      "▁ท": 2476,
      "จริง": 2477,
      "ิ่ม": 2478,
      "บุ": 2479,
      "กรรม": 2480,
      "แก": 2481,
      "▁ๆ": 2482,
      "▁บา": 2483,
      "▁เล": 2484,
      "ปี": 2485,
      "ที่มี": 2486,
      "ไซ": 2487,
      "ช่วย": 2488,
      "ราย": 2489,
      "สร้าง": 2490,
      "ลัง": 2491,
      "หว": 2492,
      "ดับ": 2493,
      "ไว": 2494,
      "ุม": 2495,
      "ครั้ง": 2496,
      "สิโน": 2497,
      "หนึ่ง": 2498,
      "ไม": 2499,
      "อะ": 2500,
      "สั": 2501,
      "ียว": 2502,
      "าะ": 2503,
      "บ้าน": 2504,
      "ณะ": 2505,
      "ิ่ง": 2506,
      "สุ": 2507,
      "พิ": 2508,
      "่วม": 2509,
      "าร์": 2510,
      "ได้รับ": 2511,
      "รู": 2512,
      "้อย": 2513,
      "เขา": 2514,
      "คือ": 2515,
      "เกิด": 2516,
      "ธี": 2517,
      "ถูก": 2518,
      "แต": 2519,
      "ี่ยว": 2520,
      "ใหญ": 2521,
      "▁เพื่อ": 2522,
      "วด": 2523,
      "เห็น": 2524,
      "▁เว็บ": 2525,
      "▁202": 2526,
      "ตุ": 2527,
      "เวลา": 2528,
      "ติด": 2529,
      "▁เกม": 2530,
      "==": 2531,
      "ทุน": 2532,
      "เค": 2533,
      "นิ": 2534,
      "พระ": 2535,
      "ือง": 2536,
      "าล": 2537,
      "ัคร": 2538,
      "ราคา": 2539,
      "อาจ": 2540,
      "สูง": 2541,
      "้าย": 2542,
      "ใหญ่": 2543,
      "้ม": 2544,
      "ค่": 2545,
      "▁จะ": 2546,
      "เรียน": 2547,
      "วจ": 2548,
      "ค์": 2549,
      "ระบบ": 2550,
      "ุ่ม": 2551,
      "โม": 2552,
      "รร": 2553,
      "เพิ่ม": 2554,
      "เดิมพัน": 2555,
      "เหล": 2556,
      "ง่าย": 2557,
      "รุ": 2558,
      "▁ก็": 2559,
      "ืน": 2560,
      "ต้น": 2561,
      "ค่า": 2562,
      "ส่ง": 2563,
      "ื้น": 2564,
      "ทร": 2565,
      "มัน": 2566,
      "าศ": 2567,
      "ทีม": 2568,
      "หนัง": 2569,
      "บั": 2570,
      "ธร": 2571,
      "่อย": 2572,
      "คำ": 2573,
      "▁วัน": 2574,
      "ไซต์": 2575,
      "ัส": 2576,
      "คิด": 2577,
      "▁เพราะ": 2578,
      "สิน": 2579,
      "▁ประ": 2580,
      "เดียว": 2581,
      "เมื่อ": 2582,
      "วิธี": 2583,
      "ท่าน": 2584,
      "เครื่อง": 2585,
      "รัก": 2586,
      "เปิด": 2587,
      "ุน": 2588,
      "ลาด": 2589,
      "แข": 2590,
      "ดิต": 2591,
      "▁ของ": 2592,
      "ด้าน": 2593,
      "หมาย": 2594,
      "ธรรม": 2595,
      "▁ผู้": 2596,
      "แห": 2597,
      "ผม": 2598,
      "อม": 2599,
      "้อน": 2600,
      "▁สำ": 2601,
      "เจ้า": 2602,
      "ถือ": 2603,
      "้อมูล": 2604,
      "เศ": 2605,
      "ุต": 2606,
      "รถ": 2607,
      "ชาติ": 2608,
      "สิ่ง": 2609,
      "เร็": 2610,
      "ไว้": 2611,
      "สถ": 2612,
      "ยา": 2613,
      "ลูก": 2614,
      "เสีย": 2615,
      "โลก": 2616,
      "สี": 2617,
      "▁ให้": 2618,
      "อาหาร": 2619,
      "พวก": 2620,
      "แม": 2621,
      "ัว": 2622,
      "ศึก": 2623,
      "เกี่ยว": 2624,
      "โร": 2625,
      "▁เร": 2626,
      "ุก": 2627,
      "ข้อ": 2628,
      "อื่น": 2629,
      "สา": 2630,
      "คาร่า": 2631,
      "ที่ย": 2632,
      "▁จาก": 2633,
      "▁เมื่อ": 2634,
      "ิว": 2635,
      "ด์": 2636,
      "ครับ": 2637,
      "▁เข": 2638,
      "ฝาก": 2639,
      "▁เคร": 2640,
      "ทธิ": 2641,
      "เปล": 2642,
      "บัน": 2643,
      "รูป": 2644,
      "ขาย": 2645,
      "สาร": 2646,
      "▁เช": 2647,
      "▁คา": 2648,
      "สะ": 2649,
      "ต้องการ": 2650,
      "วิต": 2651,
      "ช่วง": 2652,
      "ตรง": 2653,
      "ัท": 2654,
      "มิ": 2655,
      "ไม่มี": 2656,
      "ักษ": 2657,
      "▁256": 2658,
      "ชั่น": 2659,
      "ไฟ": 2660,
      "สอบ": 2661,
      "หมด": 2662,
      "นวน": 2663,
      "ข้อมูล": 2664,
      "แรก": 2665,
      "ริ่ม": 2666,
      "เมือง": 2667,
      "ฐาน": 2668,
      "▁สม": 2669,
      "หลัก": 2670,
      "ห์": 2671,
      "สบ": 2672,
      "ตล": 2673,
      "ุ้น": 2674,
      "รวม": 2675,
      "็ด": 2676,
      "มาย": 2677,
      "ลอง": 2678,
      "พื้น": 2679,
      "โย": 2680,
      "สง": 2681,
      "คาสิโน": 2682,
      "ธุ": 2683,
      "เตอร์": 2684,
      "ชม": 2685,
      "ก่อน": 2686,
      "ซื้อ": 2687,
      "เดิน": 2688,
      "ิล": 2689,
      "พั": 2690,
      "กิจ": 2691,
      "ียบ": 2692,
      "แห่ง": 2693,
      "ษัท": 2694,
      "▁ความ": 2695,
      "ชีวิต": 2696,
      "ภาย": 2697,
      "แจ": 2698,
      "อั": 2699,
      "็ม": 2700,
      "ดัง": 2701,
      "ผลิต": 2702,
      "พร้อม": 2703,
      "ไหน": 2704,
      "มีความ": 2705,
      "▁คุณ": 2706,
      "มีการ": 2707,
      "รัฐ": 2708,
      "▁กล": 2709,
      "ไม่ได้": 2710,
      "ควร": 2711,
      "เว็บไซต์": 2712,
      "คัญ": 2713,
      "อุ": 2714,
      "ว่าจะ": 2715,
      "ญา": 2716,
      "สดง": 2717,
      "แพ": 2718,
      "ีน": 2719,
      "ท์": 2720,
      "ประก": 2721,
      "อะไร": 2722,
      "เฉ": 2723,
      "การณ์": 2724,
      "▁ฟ": 2725,
      "สำคัญ": 2726,
      "▁ปี": 2727,
      "สมา": 2728,
      "แรง": 2729,
      "เพียง": 2730,
      "ตรวจ": 2731,
      "โปร": 2732,
      "น่า": 2733,
      "กำลัง": 2734,
      "▁มา": 2735,
      "▁ว": 2736,
      "ทำงาน": 2737,
      "ดำ": 2738,
      "ี่ยน": 2739,
      "เหตุ": 2740,
      "▁สำหรับ": 2741,
      "โต": 2742,
      "ตอน": 2743,
      "ุง": 2744,
      "ศึกษา": 2745,
      "▁พร": 2746,
      "ร่วม": 2747,
      "ทั่ว": 2748,
      "ราช": 2749,
      "แบ": 2750,
      "▁เด": 2751,
      "ที่ดี": 2752,
      "ตา": 2753,
      "▁บาท": 2754,
      "ต่างๆ": 2755,
      "นะ": 2756,
      "ปัญ": 2757,
      "ชิก": 2758,
      "จน": 2759,
      "บาง": 2760,
      "ั่ง": 2761,
      "▁เล่น": 2762,
      "▁ดู": 2763,
      "ใช้ง": 2764,
      "ยุ": 2765,
      "ุตบอล": 2766,
      "พัฒ": 2767,
      "ธ์": 2768,
      "ยม": 2769,
      "▁พร้อม": 2770,
      "ชื่อ": 2771,
      "คง": 2772,
      "ตร์": 2773,
      "▁รวม": 2774,
      "โรง": 2775,
      "▁–": 2776,
      "ใช้งาน": 2777,
      "สุข": 2778,
      "อัน": 2779,
      "ยน": 2780,
      "เติ": 2781,
      "ภัย": 2782,
      "ของคุณ": 2783,
      "▁คน": 2784,
      "สิทธิ": 2785,
      "เริ่ม": 2786,
      "▁ทั้ง": 2787,
      "ใคร": 2788,
      "ว่าง": 2789,
      "หมือน": 2790,
      "ลงทุน": 2791,
      "สถาน": 2792,
      "โด": 2793,
      "ังหว": 2794,
      "เปลี่ยน": 2795,
      "ุ่น": 2796,
      "ไข": 2797,
      "▁บอล": 2798,
      "จุ": 2799,
      "ใด": 2800,
      "ระดับ": 2801,
      "บัติ": 2802,
      "ทะ": 2803,
      "กลับ": 2804,
      "ยอด": 2805,
      "งบอล": 2806,
      "ใบ": 2807,
      "ริม": 2808,
      "▁สมัคร": 2809,
      "▁แล้ว": 2810,
      "▁ด้วย": 2811,
      "ลด": 2812,
      "นาด": 2813,
      "▁..": 2814,
      "พบ": 2815,
      "วาง": 2816,
      "ชนะ": 2817,
      "ตำ": 2818,
      "อยาก": 2819,
      "ข่าว": 2820,
      "ราง": 2821,
      "สมาชิก": 2822,
      "เชื่อ": 2823,
      "เอา": 2824,
      "กล่าว": 2825,
      "หาก": 2826,
      "▁ผล": 2827,
      "ยาย": 2828,
      "บาท": 2829,
      "ูน": 2830,
      "▁คือ": 2831,
      "▁บริ": 2832,
      "ตก": 2833,
      "เช่น": 2834,
      "รอง": 2835,
      "▁หาก": 2836,
      "ภู": 2837,
      "▁ฟรี": 2838,
      "เที่ย": 2839,
      "มน": 2840,
      "บาล": 2841,
      "ียด": 2842,
      "แสดง": 2843,
      "มาณ": 2844,
      "ชอบ": 2845,
      "ซี": 2846,
      "จำนวน": 2847,
      "ครง": 2848,
      "ดา": 2849,
      "วิทย": 2850,
      "ขา": 2851,
      "มากมาย": 2852,
      "วัล": 2853,
      "กลาง": 2854,
      "็ต": 2855,
      "น้อย": 2856,
      "สอง": 2857,
      "ียม": 2858,
      "ยาก": 2859,
      "ยะ": 2860,
      "จ่าย": 2861,
      "พัฒนา": 2862,
      "▁)": 2863,
      "ตอบ": 2864,
      "อยู่ใน": 2865,
      "ซึ่ง": 2866,
      "▁เน": 2867,
      "อกาส": 2868,
      "แนว": 2869,
      "่าสุด": 2870,
      "ูด": 2871,
      "เหมือน": 2872,
      "เกี่ยวกับ": 2873,
      "เศษ": 2874,
      "ปรับ": 2875,
      "ปัญหา": 2876,
      "แผ": 2877,
      "การเล่น": 2878,
      "ัจ": 2879,
      "พัก": 2880,
      "▁ไ": 2881,
      "ลิ": 2882,
      "กา": 2883,
      "ตัด": 2884,
      "ใส": 2885,
      "▁88": 2886,
      "▁รับ": 2887,
      "ผิด": 2888,
      "ณฑ": 2889,
      "สัง": 2890,
      "กลุ่ม": 2891,
      "เภ": 2892,
      "รกิจ": 2893,
      "สินค้า": 2894,
      "้าร": 2895,
      "ธุรกิจ": 2896,
      "▁เรา": 2897,
      "ฉัน": 2898,
      "ทัน": 2899,
      "ให้บริการ": 2900,
      "▁จำ": 2901,
      "เร็ว": 2902,
      "ังหวัด": 2903,
      "▁กับ": 2904,
      "ตลอด": 2905,
      "จึง": 2906,
      "รางวัล": 2907,
      "จัก": 2908,
      "สมัคร": 2909,
      "▁ทำ": 2910,
      "ฏิ": 2911,
      "เที่ยว": 2912,
      "ฤษ": 2913,
      "ยิ่ง": 2914,
      "ได้อย่าง": 2915,
      "แด": 2916,
      "ขอ": 2917,
      "▁อย่าง": 2918,
      "เสน": 2919,
      "วันนี้": 2920,
      "กัด": 2921,
      "หัว": 2922,
      "๊ก": 2923,
      "เคย": 2924,
      "โอกาส": 2925,
      "แฟ": 2926,
      "▁แท": 2927,
      "ัพ": 2928,
      "นักงาน": 2929,
      "ตน": 2930,
      "แค่": 2931,
      "โอ": 2932,
      "วันที่": 2933,
      "เครดิต": 2934,
      "สนใจ": 2935,
      "เด็ก": 2936,
      "ตรา": 2937,
      "จุด": 2938,
      "▁ส่วน": 2939,
      "ไม้": 2940,
      "ีฬ": 2941,
      "สาย": 2942,
      "ฟ้า": 2943,
      "▁สามารถ": 2944,
      "เติม": 2945,
      "นิยม": 2946,
      "หย": 2947,
      "พื้นที่": 2948,
      "แข่ง": 2949,
      "บท": 2950,
      "บอก": 2951,
      "พอ": 2952,
      "จากการ": 2953,
      "เรีย": 2954,
      "ตลาด": 2955,
      "ต้": 2956,
      "เนิน": 2957,
      "ขั้น": 2958,
      "วา": 2959,
      "ื่อน": 2960,
      "องค์": 2961,
      "ภาค": 2962,
      "เต็ม": 2963,
      "หวย": 2964,
      "หน้าที่": 2965,
      "พิเศษ": 2966,
      "้าว": 2967,
      "ต่ำ": 2968,
      "เข้ามา": 2969,
      "แก่": 2970,
      "แน่น": 2971,
      "เล็ก": 2972,
      "ให้กับ": 2973,
      "แทน": 2974,
      "ภายใน": 2975,
      "ขนาด": 2976,
      "จะมี": 2977,
      "หว่าง": 2978,
      "เดือน": 2979,
      "าสตร์": 2980,
      "ทุกคน": 2981,
      "▁คาสิโน": 2982,
      "ข้าง": 2983,
      "แตก": 2984,
      "▁หลัง": 2985,
      "▁ถ้า": 2986,
      "สู่": 2987,
      "ร้าน": 2988,
      "ชุม": 2989,
      "ปก": 2990,
      "ี่ยง": 2991,
      "อร": 2992,
      "ปฏิ": 2993,
      "่วย": 2994,
      "มอง": 2995,
      "บาคาร่า": 2996,
      "เพราะ": 2997,
      "มาะ": 2998,
      "ชาว": 2999,
      "ณา": 3000,
      ".ค": 3001,
      "ดลอง": 3002,
      "ตัวเอง": 3003,
      "นี่": 3004,
      "▁ทำให้": 3005,
      "ค่ะ": 3006,
      "โครง": 3007,
      "มั่น": 3008,
      "ห้อง": 3009,
      "คู่": 3010,
      "ั่ว": 3011,
      "บรร": 3012,
      "พาะ": 3013,
      "ของการ": 3014,
      "ผู้เล่น": 3015,
      "ณฑ์": 3016,
      "แนะ": 3017,
      "▁เช่น": 3018,
      "▁จึง": 3019,
      "่านั้น": 3020,
      "นด์": 3021,
      "อกจาก": 3022,
      "กาย": 3023,
      "ทั้งหมด": 3024,
      "สวย": 3025,
      "▁วิ": 3026,
      "ทางการ": 3027,
      "ทิ": 3028,
      "ขัน": 3029,
      "ประชา": 3030,
      "เสริม": 3031,
      "ระหว่าง": 3032,
      "ของเรา": 3033,
      "โก": 3034,
      "เผ": 3035,
      "ีฬา": 3036,
      "▁เส": 3037,
      "จะเป็น": 3038,
      "ายน": 3039,
      "คืน": 3040,
      "เลข": 3041,
      "เฉพาะ": 3042,
      "▁เครดิต": 3043,
      "ายุ": 3044,
      "บริษัท": 3045,
      "▁ข่าว": 3046,
      "ถ้า": 3047,
      "ชาย": 3048,
      "▁ตัว": 3049,
      "แต่ง": 3050,
      "กรม": 3051,
      "▁เท": 3052,
      "ี่ยม": 3053,
      "▁ราคา": 3054,
      "เดินทาง": 3055,
      "ิส": 3056,
      "▁เจ": 3057,
      "รอบ": 3058,
      "หนัก": 3059,
      "ภั": 3060,
      "ลูกค้า": 3061,
      "็ง": 3062,
      "▁นี้": 3063,
      "▁เปิด": 3064,
      "แต่ละ": 3065,
      "อิน": 3066,
      "สึก": 3067,
      "▁ศ": 3068,
      "จัดการ": 3069,
      ".ค.": 3070,
      "ใต้": 3071,
      "ประสบ": 3072,
      "มากกว่า": 3073,
      "▁()": 3074,
      "ดำเนิน": 3075,
      "▁โปร": 3076,
      "มากขึ้น": 3077,
      "ลักษ": 3078,
      "ปัจ": 3079,
      "รูปแบบ": 3080,
      "สนุก": 3081,
      "ประกอบ": 3082,
      "ประเทศไทย": 3083,
      "พัน": 3084,
      "▁วิธี": 3085,
      "ทอง": 3086,
      "เท่า": 3087,
      "นาย": 3088,
      "พูด": 3089,
      "หนด": 3090,
      "เนื่อง": 3091,
      "ที่คุณ": 3092,
      "▁นาย": 3093,
      "ต่อไป": 3094,
      "รักษา": 3095,
      "เสียง": 3096,
      "อดภัย": 3097,
      "พล": 3098,
      "▁ยัง": 3099,
      "จุบัน": 3100,
      "บาย": 3101,
      "ใช่": 3102,
      "ตั้งแต่": 3103,
      "เสนอ": 3104,
      "ทย์": 3105,
      "ถ่าย": 3106,
      "็ค": 3107,
      "ถาม": 3108,
      "แป": 3109,
      "คะ": 3110,
      "เป็นการ": 3111,
      "อำ": 3112,
      "าะห์": 3113,
      "เฟ": 3114,
      "ังก": 3115,
      "ฟุตบอล": 3116,
      "ว์": 3117,
      "▁แม": 3118,
      "ทาน": 3119,
      "▁ราย": 3120,
      "▁ทาง": 3121,
      "เคราะห์": 3122,
      "ชั้น": 3123,
      "ประมาณ": 3124,
      "กำไร": 3125,
      "แน่นอน": 3126,
      "ราบ": 3127,
      "▁ผ": 3128,
      "เหน": 3129,
      "▁นัก": 3130,
      "ประจำ": 3131,
      "ยก": 3132,
      "ลีก": 3133,
      "เวอร์": 3134,
      "เก็บ": 3135,
      "ไพ": 3136,
      "หาย": 3137,
      "กรณ์": 3138,
      "เอก": 3139,
      "ํา": 3140,
      "เธ": 3141,
      "ูป": 3142,
      "วิว": 3143,
      "ช่อง": 3144,
      "25": 3145,
      "กล้": 3146,
      "▁ต้อง": 3147,
      "ไม่ต้อง": 3148,
      "วี": 3149,
      "เอียด": 3150,
      "ตรี": 3151,
      "อ่าน": 3152,
      "▁สู": 3153,
      "แนะนำ": 3154,
      "ดวก": 3155,
      "เหมาะ": 3156,
      "▁บาคาร่า": 3157,
      "บัญ": 3158,
      "มหา": 3159,
      "จำเป็น": 3160,
      "ล์": 3161,
      "แก้": 3162,
      "▁ฝาก": 3163,
      "้าม": 3164,
      "ละเอียด": 3165,
      "ฝ่าย": 3166,
      "ณี": 3167,
      "สัญ": 3168,
      "ามี": 3169,
      "บ้าง": 3170,
      "ภูมิ": 3171,
      "็จ": 3172,
      "แข่งขัน": 3173,
      "กับการ": 3174,
      "ชน์": 3175,
      "ภาษา": 3176,
      "เนื้อ": 3177,
      "เมี": 3178,
      "เท่านั้น": 3179,
      "▁ไป": 3180,
      "ประโย": 3181,
      "เหลือ": 3182,
      "ภัณฑ์": 3183,
      "เดิม": 3184,
      "จัย": 3185,
      "▁เครื่อง": 3186,
      "แผน": 3187,
      "▁ธ": 3188,
      "เกิน": 3189,
      "สาว": 3190,
      "ครบ": 3191,
      "▁หวย": 3192,
      "ความรู้": 3193,
      "▁ยู": 3194,
      "ปลอดภัย": 3195,
      "ดิ": 3196,
      "มือถือ": 3197,
      "มอ": 3198,
      "====": 3199,
      "ท่อง": 3200,
      "สูตร": 3201,
      "▁อา": 3202,
      "▁ดัง": 3203,
      "▁เอ": 3204,
      "ยนต์": 3205,
      "ูนย์": 3206,
      "จับ": 3207,
      "ขณะ": 3208,
      "เทพ": 3209,
      "ทรั": 3210,
      "เพื่อน": 3211,
      "อาจจะ": 3212,
      "▁นอกจาก": 3213,
      "บนัส": 3214,
      "รษ": 3215,
      "▁รี": 3216,
      "ที่เป็น": 3217,
      "ิค": 3218,
      "กิน": 3219,
      "ใส่": 3220,
      "โครงการ": 3221,
      "▁ล้าน": 3222,
      "กำหนด": 3223,
      "โรค": 3224,
      "ศาสตร์": 3225,
      "หร": 3226,
      "ป้อง": 3227,
      "โมชั่น": 3228,
      "พวกเขา": 3229,
      "ธาน": 3230,
      "แม่": 3231,
      "ผิว": 3232,
      "โช": 3233,
      "หุ้น": 3234,
      "แอ": 3235,
      "ทำการ": 3236,
      "ประโยชน์": 3237,
      "ท้าย": 3238,
      "ใกล้": 3239,
      "นน": 3240,
      "โทร": 3241,
      "เสี่ยง": 3242,
      "▁กระ": 3243,
      "ปกรณ์": 3244,
      "ระยะ": 3245,
      "แทงบอล": 3246,
      "ถอน": 3247,
      "ปฏิบัติ": 3248,
      "วล": 3249,
      "▁อีก": 3250,
      "▁ออนไลน์": 3251,
      "▁เข้า": 3252,
      "ล่าสุด": 3253,
      "แรม": 3254,
      "ชิ": 3255,
      "ว่าเป็น": 3256,
      "ครอบ": 3257,
      "งาม": 3258,
      "ออกมา": 3259,
      "าก็": 3260,
      "กฎ": 3261,
      "เข้าใจ": 3262,
      "เกิดขึ้น": 3263,
      "จังหวัด": 3264,
      "ป์": 3265,
      "่าร": 3266,
      "▁บริษัท": 3267,
      "บู": 3268,
      "จะต้อง": 3269,
      "และการ": 3270,
      "กิจกรรม": 3271,
      "สะดวก": 3272,
      "เมีย": 3273,
      "▁แจ": 3274,
      "ังกฤษ": 3275,
      "เพลง": 3276,
      "จีน": 3277,
      "ลาย": 3278,
      "อื่นๆ": 3279,
      "เบียน": 3280,
      "บิน": 3281,
      "คุณภาพ": 3282,
      "เยี่ยม": 3283,
      "77": 3284,
      "สื่อ": 3285,
      "เกมสล็อต": 3286,
      "ตะ": 3287,
      "เกมส์": 3288,
      "คอ": 3289,
      "▁พ.": 3290,
      "รุ่น": 3291,
      "ยู": 3292,
      "ชุด": 3293,
      "หญ": 3294,
      "ิ่น": 3295,
      "ัม": 3296,
      "▁เรื่อง": 3297,
      "การพนัน": 3298,
      "ท่องเที่ยว": 3299,
      "พา": 3300,
      "ขน": 3301,
      "สิ่งที่": 3302,
      "รวจ": 3303,
      "โมง": 3304,
      "ดิน": 3305,
      "เภท": 3306,
      "คุม": 3307,
      "ดูแล": 3308,
      "บริหาร": 3309,
      "สมัย": 3310,
      "▁มัน": 3311,
      "หลาก": 3312,
      "ปัจจุบัน": 3313,
      "สห": 3314,
      "ี้ย": 3315,
      "▁เนื่อง": 3316,
      "เหล่า": 3317,
      "อายุ": 3318,
      "▁ผม": 3319,
      "ตู": 3320,
      "ผ่านมา": 3321,
      "คณะ": 3322,
      "▁มิ": 3323,
      "สรร": 3324,
      "▁เกมส์": 3325,
      "ข้อง": 3326,
      "ค้น": 3327,
      "คโน": 3328,
      "ทั่วไป": 3329,
      "ือด": 3330,
      "ยี": 3331,
      "ทะเบียน": 3332,
      "เคล": 3333,
      "ปลา": 3334,
      "พลัง": 3335,
      "บุรี": 3336,
      "▁ก่อน": 3337,
      "ควบ": 3338,
      "เพิ่มเติม": 3339,
      "คโนโล": 3340,
      "หลด": 3341,
      "ทรัพ": 3342,
      "หนังส": 3343,
      "เกอร์": 3344,
      "ไพ่": 3345,
      "ชีพ": 3346,
      "ซ์": 3347,
      "เส้น": 3348,
      "คคล": 3349,
      "▁ถึง": 3350,
      "ที่ไม่": 3351,
      "ขับ": 3352,
      "จะได้": 3353,
      "ราว": 3354,
      "ัล": 3355,
      "มาตร": 3356,
      "เข้าไป": 3357,
      "โจ": 3358,
      "คุ้ม": 3359,
      "ร่าง": 3360,
      "▁โรง": 3361,
      "ชัด": 3362,
      "ตรียม": 3363,
      "▁ตาม": 3364,
      "แจ้ง": 3365,
      "กีฬา": 3366,
      "ไอ": 3367,
      "เยอะ": 3368,
      "เด็ด": 3369,
      "เร็จ": 3370,
      "▁น.": 3371,
      "สาม": 3372,
      "สบาย": 3373,
      "่วง": 3374,
      "ไฟฟ้า": 3375,
      "คโนโลยี": 3376,
      "▁ง": 3377,
      "ตรวจสอบ": 3378,
      "ากาศ": 3379,
      "แหล": 3380,
      "ได้เลย": 3381,
      "ประชาชน": 3382,
      "โซ": 3383,
      "▁ไม่มี": 3384,
      "เมียร์": 3385,
      "ได้รับการ": 3386,
      "นาน": 3387,
      "แหน": 3388,
      "าราง": 3389,
      "แกรม": 3390,
      "หลากหลาย": 3391,
      "▁2022": 3392,
      "สัม": 3393,
      "สวน": 3394,
      "ั่วโมง": 3395,
      "ใช้บริการ": 3396,
      "เธอ": 3397,
      "▁สูตร": 3398,
      "เป็นอย่าง": 3399,
      "▁ทุก": 3400,
      "อีกด้วย": 3401,
      "วัต": 3402,
      "ลับ": 3403,
      "ดังกล่าว": 3404,
      "ประสบการณ์": 3405,
      "สำเร็จ": 3406,
      "สุขภาพ": 3407,
      "ุ่ง": 3408,
      "อยู่ที่": 3409,
      "เพล": 3410,
      "เกี่ยวข้อง": 3411,
      "ปิด": 3412,
      "แหน่ง": 3413,
      "ิม": 3414,
      "ในช่วง": 3415,
      "แข็ง": 3416,
      "ศ.": 3417,
      "ป้องกัน": 3418,
      "รีเมียร์": 3419,
      "ัพท์": 3420,
      "▁ฟุตบอล": 3421,
      "▁แม้": 3422,
      "ลำ": 3423,
      "เขียน": 3424,
      "▁พระ": 3425,
      "หญิง": 3426,
      "อร์ด": 3427,
      "ออกแบบ": 3428,
      "อนุ": 3429,
      "ิร์": 3430,
      "▁255": 3431,
      "▁รอง": 3432,
      "แม้": 3433,
      "▁หม": 3434,
      "ศัพท์": 3435,
      "อรี่": 3436,
      "เกษ": 3437,
      "ครัว": 3438,
      "แดง": 3439,
      "บุคคล": 3440,
      "รษฐ": 3441,
      "หนังสือ": 3442,
      "▁แบบ": 3443,
      "▁จน": 3444,
      "ุล": 3445,
      "ผ้า": 3446,
      "โท": 3447,
      "▁ในการ": 3448,
      "าวน์": 3449,
      "▁เห": 3450,
      "ทันที": 3451,
      "มากที่สุด": 3452,
      "▁...\n": 3453,
      "▁แทงบอล": 3454,
      "ัฐ": 3455,
      "ผลิตภัณฑ์": 3456,
      "ชนิด": 3457,
      "นี้\n": 3458,
      "ได้\n": 3459,
      "ทธ": 3460,
      "โค": 3461,
      "▁2.": 3462,
      "วัด": 3463,
      "ที่เรา": 3464,
      "วัย": 3465,
      "กรรมการ": 3466,
      "ได้เงิน": 3467,
      "นาม": 3468,
      "คาสิโนออนไลน์": 3469,
      "▁ติด": 3470,
      "เผย": 3471,
      "▁ฮ": 3472,
      "แปลง": 3473,
      "▁.\n": 3474,
      "ความคิด": 3475,
      "รายการ": 3476,
      "▁เซ": 3477,
      "ช่วยให้": 3478,
      "ไหม": 3479,
      "ก็ตาม": 3480,
      "จิต": 3481,
      "▁เนื่องจาก": 3482,
      "แบ่ง": 3483,
      "▁นา": 3484,
      "กอง": 3485,
      "ก่อ": 3486,
      "คดี": 3487,
      "ฟัง": 3488,
      "อากาศ": 3489,
      "สั่ง": 3490,
      "▁888": 3491,
      "▁กล่าว": 3492,
      "▁ครั้ง": 3493,
      "▁อ่าน": 3494,
      "วะ": 3495,
      "เข้าร": 3496,
      "คนที่": 3497,
      "อาการ": 3498,
      "ทราบ": 3499,
      "สอน": 3500,
      "กระท": 3501,
      "ับสน": 3502,
      "เจน": 3503,
      "สูงสุด": 3504,
      "▁คร": 3505,
      "▁งาน": 3506,
      "หน่วย": 3507,
      "สัต": 3508,
      "▁ดังนั้น": 3509,
      "แพทย์": 3510,
      "เดียวกัน": 3511,
      "ยืน": 3512,
      "ให้น": 3513,
      "โบนัส": 3514,
      "ทดลอง": 3515,
      "▁อัน": 3516,
      "บัญชี": 3517,
      "ประเภท": 3518,
      "ควบคุม": 3519,
      "ที่ดีที่สุด": 3520,
      "สังคม": 3521,
      "ประสิทธิ": 3522,
      "อย่างไร": 3523,
      "ม.": 3524,
      "สิต": 3525,
      "เวณ": 3526,
      "99": 3527,
      "ัติ": 3528,
      "▁สล็อตออนไลน์": 3529,
      "ตัดสิน": 3530,
      "เหนือ": 3531,
      "อังกฤษ": 3532,
      "ที่น่า": 3533,
      "ออ": 3534,
      "คนิค": 3535,
      "าลัย": 3536,
      "▁กัน": 3537,
      "▁ใช้": 3538,
      "าค": 3539,
      "เสมอ": 3540,
      "ชัย": 3541,
      "--": 3542,
      "▁เวลา": 3543,
      "รณ์": 3544,
      "อี": 3545,
      "โหลด": 3546,
      "▁ประก": 3547,
      "▁22": 3548,
      "ท้อง": 3549,
      "ัต": 3550,
      "นอก": 3551,
      "สัมพัน": 3552,
      "บล": 3553,
      "เทคโนโลยี": 3554,
      "รุง": 3555,
      "ครอง": 3556,
      "เชื้อ": 3557,
      "แนน": 3558,
      "▁เง": 3559,
      "ทร์": 3560,
      "ประกาศ": 3561,
      "อันดับ": 3562,
      "การเดิมพัน": 3563,
      "ยังมี": 3564,
      "ย.": 3565,
      "หวัง": 3566,
      "▁ณ": 3567,
      "เด่น": 3568,
      "วิทยาลัย": 3569,
      "ของผู้": 3570,
      "▁ส่ง": 3571,
      "สนาม": 3572,
      "ทรัพย์": 3573,
      "นู": 3574,
      "ร้อย": 3575,
      "ขาด": 3576,
      "ทรง": 3577,
      "คอน": 3578,
      "ร้อน": 3579,
      "ลาก": 3580,
      "บาด": 3581,
      "จักร": 3582,
      "ากร": 3583,
      "วิจัย": 3584,
      "มพ์": 3585,
      "▁ต่อ": 3586,
      "ประชุม": 3587,
      "สัมพันธ์": 3588,
      "ว่าจะเป็น": 3589,
      "เศรษฐ": 3590,
      "▁หลังจาก": 3591,
      "เท้า": 3592,
      "▁หน้า": 3593,
      "=>": 3594,
      "วดเร็ว": 3595,
      "ปกติ": 3596,
      "ความเป็น": 3597,
      "หลวง": 3598,
      "เรียนรู้": 3599,
      "ศูนย์": 3600,
      "รู้สึก": 3601,
      "บัตร": 3602,
      "คาด": 3603,
      "ับสนุน": 3604,
      "▁เค": 3605,
      "ธรรมชาติ": 3606,
      "กฎหมาย": 3607,
      "มาจาก": 3608,
      "แตกต่าง": 3609,
      "▁ดี": 3610,
      "เหล่านี้": 3611,
      "▁พนัน": 3612,
      "66": 3613,
      "ฝึก": 3614,
      "ยิง": 3615,
      "▁ว่า": 3616,
      "โบ": 3617,
      "สถานที่": 3618,
      "▁นอกจากนี้": 3619,
      "เครดิตฟรี": 3620,
      "▁ออก": 3621,
      "พลาด": 3622,
      "ดวง": 3623,
      "ลักษณ์": 3624,
      "หน่าย": 3625,
      "ประสิทธิภาพ": 3626,
      "มาร": 3627,
      "▁หุ้น": 3628,
      "อุปกรณ์": 3629,
      "พวกเรา": 3630,
      "วัฒ": 3631,
      "หรือไม่": 3632,
      "เชีย": 3633,
      "▁ซึ่งเป็น": 3634,
      "เลือด": 3635,
      "รด": 3636,
      "เริ่มต้น": 3637,
      "ตี": 3638,
      "ไปด้วย": 3639,
      "รนด์": 3640,
      "สิทธิ์": 3641,
      "รายได้": 3642,
      "่อม": 3643,
      "หยุด": 3644,
      "ยัน": 3645,
      "ี่ป": 3646,
      "▁ลิ": 3647,
      "เป้า": 3648,
      "ครับ\n": 3649,
      "ไม่น": 3650,
      "ปริ": 3651,
      "▁น้ำ": 3652,
      "ได้รับความ": 3653,
      "▁สถ": 3654,
      "มอบ": 3655,
      "สัน": 3656,
      "สต์": 3657,
      "ที่ได้": 3658,
      "ที่ผ่านมา": 3659,
      "เหมาะสม": 3660,
      "ค่าย": 3661,
      "ตำแหน่ง": 3662,
      "▁นั้น": 3663,
      "▁สิ่ง": 3664,
      "โปรโมชั่น": 3665,
      "ายเป็น": 3666,
      "▁://": 3667,
      "ไง": 3668,
      "สหรัฐ": 3669,
      "เคลื่อน": 3670,
      "▁เว็บไซต์": 3671,
      "▁รวมถึง": 3672,
      "▁จัด": 3673,
      "▁ไม่ต้อง": 3674,
      "่ะ": 3675,
      "▁ห้อง": 3676,
      "▁สี": 3677,
      "▁คาสิโนออนไลน์": 3678,
      "พุ": 3679,
      "ต่อเนื่อง": 3680,
      "▁ชั่วโมง": 3681,
      "23": 3682,
      "พูล": 3683,
      "นั่น": 3684,
      "ฝัน": 3685,
      "ติดตาม": 3686,
      "สาห": 3687,
      "อัตรา": 3688,
      "ควิด": 3689,
      "โพ": 3690,
      "ญี่ป": 3691,
      "พยา": 3692,
      "อย่า": 3693,
      "หนึ่งใน": 3694,
      "▁รีวิว": 3695,
      "16": 3696,
      "วิชา": 3697,
      "ญี่ปุ่น": 3698,
      "าระ": 3699,
      "ก็จะ": 3700,
      "▁ที่มี": 3701,
      "สำหรับการ": 3702,
      "▁เจ้า": 3703,
      "มูล": 3704,
      "ิป": 3705,
      "ทอด": 3706,
      "▁บาง": 3707,
      "▁เพียง": 3708,
      "มาตรฐาน": 3709,
      "ีย์": 3710,
      "ตนเอง": 3711,
      "ถม": 3712,
      "๊ะ": 3713,
      "ติก": 3714,
      "ติดต่อ": 3715,
      "แสง": 3716,
      "วิธีการ": 3717,
      "ร่างกาย": 3718,
      "▁คำ": 3719,
      "▁ผ่าน": 3720,
      "ุษ": 3721,
      "ก็คือ": 3722,
      "ก็ได้": 3723,
      "▁บท": 3724,
      "ประกัน": 3725,
      "เตอรี่": 3726,
      "กรุง": 3727,
      "จ้าง": 3728,
      "รส": 3729,
      "จบ": 3730,
      "วรร": 3731,
      "ที่นี่": 3732,
      "ได้ว่า": 3733,
      "▁ขอ": 3734,
      "ไตล": 3735,
      "วบ": 3736,
      "วร์": 3737,
      "▁รวมทั้ง": 3738,
      "▁จำกัด": 3739,
      "อิ": 3740,
      "พนันออนไลน์": 3741,
      "▁2021-0": 3742,
      "สาน": 3743,
      "สัก": 3744,
      "เตรียม": 3745,
      "▁ระบบ": 3746,
      "▁ข้อ": 3747,
      "เกษตร": 3748,
      "ระบุ": 3749,
      "องค์กร": 3750,
      "แน่": 3751,
      "ฟอร์": 3752,
      "เรียก": 3753,
      "▁เงิน": 3754,
      "▁ตอน": 3755,
      "▁2562": 3756,
      "▁จำนวน": 3757,
      "แฟน": 3758,
      "ชื่น": 3759,
      "ละคร": 3760,
      "แทง": 3761,
      "จริงๆ": 3762,
      "ดูก": 3763,
      "พ่อ": 3764,
      "ลงทะเบียน": 3765,
      "ีด": 3766,
      "รอ": 3767,
      "▁สด": 3768,
      "สนับสนุน": 3769,
      "ในปี": 3770,
      "ประตู": 3771,
      "สล็อตออนไลน์": 3772,
      "ครอบครัว": 3773,
      "ื่อย": 3774,
      "▁ร้าน": 3775,
      "ยายาม": 3776,
      "กรณี": 3777,
      "เซีย": 3778,
      "▁ทดลอง": 3779,
      "▁พวก": 3780,
      "เป็นที่": 3781,
      "▁แน": 3782,
      "ไตล์": 3783,
      "ามา": 3784,
      "▁21": 3785,
      "เชิง": 3786,
      "เจ้าหน้าที่": 3787,
      "กด": 3788,
      "ศรี": 3789,
      "ปรุง": 3790,
      "กว": 3791,
      "ป่า": 3792,
      "จร": 3793,
      "บริเวณ": 3794,
      "▁ขณะ": 3795,
      "แช": 3796,
      "▁กำ": 3797,
      "บวน": 3798,
      "โรงแรม": 3799,
      ".00": 3800,
      "ทด": 3801,
      "หลี": 3802,
      "ขึ้นมา": 3803,
      "รัฐบาล": 3804,
      "การศึกษา": 3805,
      "ิจาร": 3806,
      "ขาว": 3807,
      "้วน": 3808,
      "ปาก": 3809,
      "เวอร์พูล": 3810,
      "ยาว": 3811,
      "ได้ง่าย": 3812,
      "กลง": 3813,
      "พรร": 3814,
      "สก": 3815,
      "ไน": 3816,
      "อาชีพ": 3817,
      "▁ภาพ": 3818,
      "สป": 3819,
      "ดำเนินการ": 3820,
      "24": 3821,
      "เน็ต": 3822,
      "แพร": 3823,
      "นี": 3824,
      "น้อง": 3825,
      "ให้คุณ": 3826,
      "ยาน": 3827,
      "สัญญา": 3828,
      "▁แจก": 3829,
      "มาน": 3830,
      "โควิด": 3831,
      "▁รถ": 3832,
      "▁สิ": 3833,
      "แท้": 3834,
      "ศัก": 3835,
      "▁ตาราง": 3836,
      "ยุค": 3837,
      "เรือ": 3838,
      "พนันบอล": 3839,
      "ิวเตอร์": 3840,
      "พี่": 3841,
      "▁เบ": 3842,
      "ไม่สามารถ": 3843,
      "2-": 3844,
      "ยอม": 3845,
      "และความ": 3846,
      "พิมพ์": 3847,
      "กก": 3848,
      "พี": 3849,
      "ษ์": 3850,
      "โฟ": 3851,
      "เศรษฐกิจ": 3852,
      "ชำ": 3853,
      "มพิวเตอร์": 3854,
      "ตัดสินใจ": 3855,
      "พ.": 3856,
      "ธาร": 3857,
      "วัง": 3858,
      "▁บ้าน": 3859,
      "าวน์โหลด": 3860,
      "ออกไป": 3861,
      "ไม่ใช่": 3862,
      "สัตว์": 3863,
      "ุตสาห": 3864,
      "ครู": 3865,
      "ทะเล": 3866,
      "วัติ": 3867,
      "รวดเร็ว": 3868,
      "กรา": 3869,
      "เก่า": 3870,
      "▁3.": 3871,
      "โทรศัพท์": 3872,
      "▁>": 3873,
      "▁ทีม": 3874,
      "อ่อน": 3875,
      "เรียบ": 3876,
      "สิ้น": 3877,
      "แก้ไข": 3878,
      "นวย": 3879,
      "การใช้": 3880,
      "เตะ": 3881,
      "ตัน": 3882,
      "ป่วย": 3883,
      "เซอร์": 3884,
      "ชัน": 3885,
      "ร้าง": 3886,
      "ที่เกี่ยวข้อง": 3887,
      "▁นิ": 3888,
      "▁จังหวัด": 3889,
      "พนักงาน": 3890,
      "หัส": 3891,
      "เวล": 3892,
      "▁เขา": 3893,
      "ขั้นต่ำ": 3894,
      "ตำรวจ": 3895,
      "ร้าย": 3896,
      "ศจ": 3897,
      "ก็มี": 3898,
      "โป": 3899,
      "หลังจาก": 3900,
      "สัย": 3901,
      "▁อุ": 3902,
      "ที่มีความ": 3903,
      "ร้อง": 3904,
      "▁แบ": 3905,
      "▁ล่าสุด": 3906,
      "ตอนนี้": 3907,
      "รู้จัก": 3908,
      "มุม": 3909,
      "▁สุ": 3910,
      "ภาษ": 3911,
      "รัส": 3912,
      "โยบาย": 3913,
      "จำนวนมาก": 3914,
      "หมู่": 3915,
      "ช่วยเหลือ": 3916,
      "อำนวย": 3917,
      "จำหน่าย": 3918,
      "ลักษณะ": 3919,
      "▁หน": 3920,
      "ข่าย": 3921,
      "เปลี่ยนแปลง": 3922,
      "บูรณ์": 3923,
      "นาคาร": 3924,
      "ผสม": 3925,
      "▁ไทย": 3926,
      "ผลงาน": 3927,
      "เพิ่มขึ้น": 3928,
      "เดีย": 3929,
      "เมริ": 3930,
      "ฟ่า": 3931,
      "ให้ความ": 3932,
      "แค": 3933,
      "ฟรี|": 3934,
      "สไตล์": 3935,
      "เซ็น": 3936,
      "ฉบ": 3937,
      "กลับมา": 3938,
      "55": 3939,
      "▁สร้าง": 3940,
      "รีเมียร์ลีก": 3941,
      "ต่างประเทศ": 3942,
      "พลังงาน": 3943,
      "พิจาร": 3944,
      "แปล": 3945,
      "▁วันนี้": 3946,
      "นอน": 3947,
      "ว่าการ": 3948,
      "๊กเกอร์": 3949,
      "▁สน": 3950,
      "ลาส": 3951,
      "เย็น": 3952,
      "นั่ง": 3953,
      "กระทบ": 3954,
      "แส": 3955,
      "ชมป์": 3956,
      "แพร่": 3957,
      "ีม": 3958,
      "รอย": 3959,
      "ื่ม": 3960,
      "▁นำ": 3961,
      "สุดท้าย": 3962,
      "▁ร่า": 3963,
      "าหลี": 3964,
      "▁เดือน": 3965,
      "ดีต": 3966,
      "โภ": 3967,
      "กลายเป็น": 3968,
      "ด้วยการ": 3969,
      "ืม": 3970,
      "▁ที่จะ": 3971,
      "ท่า": 3972,
      "นคร": 3973,
      "ลม": 3974,
      "▁หนัง": 3975,
      "ธุ์": 3976,
      "เป้าหมาย": 3977,
      "เจ็บ": 3978,
      "▁ท่าน": 3979,
      "▁เพื่อให้": 3980,
      "แจก": 3981,
      "▁เครดิตฟรี": 3982,
      "พยายาม": 3983,
      "เขต": 3984,
      "มั่นใจ": 3985,
      "เน้น": 3986,
      "หลายคน": 3987
    },
    "merges": [
      [
        "▁",
        "t"
      ],
      [
        "▁",
        "a"
      ],
      [
        "i",
        "n"
      ],
      [
        "h",
        "e"
      ],
      [
        "r",
        "e"
      ],
      [
        "o",
        "n"
      ],
      [
        "e",
        "r"
      ],
      [
        "▁t",
        "he"
      ],
      [
        "▁",
        "s"
      ],
      [
        "a",
        "t"
      ],
      [
        "▁",
        "w"
      ],
      [
        "▁",
        "o"
      ],
      [
        "n",
        "d"
      ],
      [
        "▁",
        "c"
      ],
      [
        "i",
        "t"
      ],
      [
        "e",
        "s"
      ],
      [
        "o",
        "r"
      ],
      [
        "o",
        "u"
      ],
      [
        "e",
        "n"
      ],
      [
        "i",
        "s"
      ],
      [
        "in",
        "g"
      ],
      [
        "▁",
        "f"
      ],
      [
        "▁",
        "b"
      ],
      [
        "▁",
        "p"
      ],
      [
        "a",
        "n"
      ],
      [
        "a",
        "l"
      ],
      [
        "e",
        "d"
      ],
      [
        "▁t",
        "o"
      ],
      [
        "▁",
        "m"
      ],
      [
        "a",
        "r"
      ],
      [
        "▁a",
        "nd"
      ],
      [
        "▁",
        "in"
      ],
      [
        "▁o",
        "f"
      ],
      [
        "▁",
        "d"
      ],
      [
        "i",
        "c"
      ],
      [
        "l",
        "e"
      ],
      [
        "o",
        "m"
      ],
      [
        "▁",
        "h"
      ],
      [
        "a",
        "s"
      ],
      [
        "i",
        "on"
      ],
      [
        "▁t",
        "h"
      ],
      [
        "l",
        "l"
      ],
      [
        "en",
        "t"
      ],
      [
        "▁",
        "T"
      ],
      [
        "▁",
        "I"
      ],
      [
        "▁",
        "l"
      ],
      [
        "v",
        "e"
      ],
      [
        "s",
        "t"
      ],
      [
        "r",
        "o"
      ],
      [
        "▁",
        "y"
      ],
      [
        "▁",
        "e"
      ],
      [
        "▁",
        "re"
      ],
      [
        "▁",
        "n"
      ],
      [
        "▁",
        "S"
      ],
      [
        "c",
        "t"
      ],
      [
        "▁",
        "g"
      ],
      [
        "l",
        "y"
      ],
      [
        ".",
        "\n"
      ],
      [
        "e",
        "t"
      ],
      [
        "▁y",
        "ou"
      ],
      [
        "▁",
        "A"
      ],
      [
        "▁",
        "C"
      ],
      [
        "▁",
        "is"
      ],
      [
        "o",
        "t"
      ],
      [
        "u",
        "t"
      ],
      [
        "i",
        "d"
      ],
      [
        "▁f",
        "or"
      ],
      [
        "▁b",
        "e"
      ],
      [
        "▁",
        "on"
      ],
      [
        "a",
        "y"
      ],
      [
        "o",
        "w"
      ],
      [
        "u",
        "s"
      ],
      [
        "u",
        "r"
      ],
      [
        "c",
        "e"
      ],
      [
        "i",
        "g"
      ],
      [
        "i",
        "m"
      ],
      [
        "a",
        "m"
      ],
      [
        "a",
        "d"
      ],
      [
        "c",
        "h"
      ],
      [
        "v",
        "er"
      ],
      [
        "▁",
        "M"
      ],
      [
        "▁",
        "P"
      ],
      [
        "i",
        "l"
      ],
      [
        "o",
        "l"
      ],
      [
        "it",
        "h"
      ],
      [
        "at",
        "ion"
      ],
      [
        "▁th",
        "at"
      ],
      [
        "▁s",
        "t"
      ],
      [
        "▁",
        "B"
      ],
      [
        "▁w",
        "ith"
      ],
      [
        "i",
        "r"
      ],
      [
        "▁",
        "W"
      ],
      [
        "▁",
        "it"
      ],
      [
        "▁T",
        "he"
      ],
      [
        "s",
        "e"
      ],
      [
        "r",
        "a"
      ],
      [
        "▁w",
        "e"
      ],
      [
        "er",
        "s"
      ],
      [
        "▁a",
        "s"
      ],
      [
        "▁",
        "he"
      ],
      [
        "▁a",
        "n"
      ],
      [
        "i",
        "ll"
      ],
      [
        "▁",
        "H"
      ],
      [
        "▁",
        "D"
      ],
      [
        "▁p",
        "ro"
      ],
      [
        "▁",
        "F"
      ],
      [
        "▁",
        "2"
      ],
      [
        "u",
        "n"
      ],
      [
        "▁w",
        "h"
      ],
      [
        "i",
        "f"
      ],
      [
        "▁a",
        "re"
      ],
      [
        "k",
        "e"
      ],
      [
        "▁",
        "R"
      ],
      [
        "g",
        "e"
      ],
      [
        "t",
        "er"
      ],
      [
        "▁h",
        "a"
      ],
      [
        "▁",
        "1"
      ],
      [
        "o",
        "o"
      ],
      [
        "u",
        "l"
      ],
      [
        "s",
        ","
      ],
      [
        "▁c",
        "on"
      ],
      [
        "m",
        "ent"
      ],
      [
        "at",
        "e"
      ],
      [
        "p",
        "p"
      ],
      [
        "es",
        "s"
      ],
      [
        "he",
        "r"
      ],
      [
        "▁c",
        "om"
      ],
      [
        "e",
        "l"
      ],
      [
        "es",
        "t"
      ],
      [
        "▁o",
        "r"
      ],
      [
        "▁",
        "L"
      ],
      [
        "a",
        "b"
      ],
      [
        "▁a",
        "t"
      ],
      [
        "a",
        "c"
      ],
      [
        "o",
        "re"
      ],
      [
        "r",
        "i"
      ],
      [
        "▁",
        "E"
      ],
      [
        "l",
        "d"
      ],
      [
        "▁",
        "N"
      ],
      [
        "▁s",
        "e"
      ],
      [
        "▁",
        "G"
      ],
      [
        "or",
        "t"
      ],
      [
        "ig",
        "h"
      ],
      [
        "▁e",
        "x"
      ],
      [
        "'",
        "s"
      ],
      [
        "e",
        "w"
      ],
      [
        "is",
        "t"
      ],
      [
        "an",
        "t"
      ],
      [
        "r",
        "om"
      ],
      [
        "q",
        "u"
      ],
      [
        "▁",
        "("
      ],
      [
        "▁you",
        "r"
      ],
      [
        "▁d",
        "e"
      ],
      [
        "p",
        "e"
      ],
      [
        "u",
        "re"
      ],
      [
        "▁",
        "O"
      ],
      [
        "it",
        "y"
      ],
      [
        "u",
        "m"
      ],
      [
        "▁",
        "v"
      ],
      [
        "i",
        "ve"
      ],
      [
        "t",
        "h"
      ],
      [
        "▁w",
        "as"
      ],
      [
        "o",
        "p"
      ],
      [
        "u",
        "st"
      ],
      [
        "▁ha",
        "ve"
      ],
      [
        "e",
        "m"
      ],
      [
        "a",
        "in"
      ],
      [
        "n",
        "t"
      ],
      [
        "o",
        "s"
      ],
      [
        "s",
        "."
      ],
      [
        "ar",
        "t"
      ],
      [
        "▁c",
        "an"
      ],
      [
        "▁",
        "r"
      ],
      [
        "o",
        "c"
      ],
      [
        "a",
        "nd"
      ],
      [
        "i",
        "es"
      ],
      [
        "▁th",
        "is"
      ],
      [
        "▁a",
        "l"
      ],
      [
        "▁b",
        "y"
      ],
      [
        "▁f",
        "rom"
      ],
      [
        "▁",
        "us"
      ],
      [
        "▁n",
        "ot"
      ],
      [
        "▁2",
        "0"
      ],
      [
        "▁s",
        "h"
      ],
      [
        "igh",
        "t"
      ],
      [
        "▁s",
        "u"
      ],
      [
        "▁c",
        "h"
      ],
      [
        "o",
        "st"
      ],
      [
        "▁",
        "u"
      ],
      [
        "om",
        "e"
      ],
      [
        "▁w",
        "ill"
      ],
      [
        "al",
        "l"
      ],
      [
        "ar",
        "d"
      ],
      [
        "re",
        "s"
      ],
      [
        "▁",
        "le"
      ],
      [
        "ou",
        "t"
      ],
      [
        "o",
        "d"
      ],
      [
        "▁",
        "J"
      ],
      [
        "in",
        "e"
      ],
      [
        "u",
        "d"
      ],
      [
        "i",
        "al"
      ],
      [
        "ou",
        "r"
      ],
      [
        "ou",
        "ld"
      ],
      [
        "i",
        "v"
      ],
      [
        "▁p",
        "l"
      ],
      [
        "t",
        "e"
      ],
      [
        "▁a",
        "b"
      ],
      [
        "▁n",
        "e"
      ],
      [
        "id",
        "e"
      ],
      [
        "▁w",
        "or"
      ],
      [
        "p",
        "er"
      ],
      [
        "g",
        "h"
      ],
      [
        "▁a",
        "ll"
      ],
      [
        "re",
        "d"
      ],
      [
        "▁d",
        "o"
      ],
      [
        "▁T",
        "h"
      ],
      [
        "a",
        "g"
      ],
      [
        "r",
        "ou"
      ],
      [
        "▁",
        "j"
      ],
      [
        "k",
        "ing"
      ],
      [
        "▁",
        "\""
      ],
      [
        "p",
        "t"
      ],
      [
        "al",
        "ly"
      ],
      [
        "f",
        "e"
      ],
      [
        "e",
        "ar"
      ],
      [
        "▁",
        "U"
      ],
      [
        "▁",
        "k"
      ],
      [
        "ic",
        "e"
      ],
      [
        "▁I",
        "n"
      ],
      [
        "as",
        "t"
      ],
      [
        "a",
        "ge"
      ],
      [
        "ct",
        "ion"
      ],
      [
        "▁com",
        "p"
      ],
      [
        "▁a",
        "d"
      ],
      [
        "in",
        "d"
      ],
      [
        "▁h",
        "as"
      ],
      [
        "▁w",
        "he"
      ],
      [
        ".",
        "."
      ],
      [
        "▁m",
        "a"
      ],
      [
        "i",
        "p"
      ],
      [
        "ab",
        "le"
      ],
      [
        "o",
        "g"
      ],
      [
        "on",
        "e"
      ],
      [
        "0",
        "0"
      ],
      [
        "▁b",
        "ut"
      ],
      [
        "t",
        "her"
      ],
      [
        "▁m",
        "e"
      ],
      [
        "a",
        "re"
      ],
      [
        "ac",
        "k"
      ],
      [
        "ic",
        "h"
      ],
      [
        "r",
        "y"
      ],
      [
        "it",
        "e"
      ],
      [
        "▁o",
        "ut"
      ],
      [
        "ver",
        "y"
      ],
      [
        "▁",
        "Y"
      ],
      [
        "▁",
        "en"
      ],
      [
        "▁s",
        "o"
      ],
      [
        "at",
        "ed"
      ],
      [
        "▁the",
        "y"
      ],
      [
        "▁u",
        "p"
      ],
      [
        "on",
        "g"
      ],
      [
        "i",
        "z"
      ],
      [
        "im",
        "e"
      ],
      [
        "▁m",
        "ore"
      ],
      [
        "▁the",
        "ir"
      ],
      [
        "oo",
        "d"
      ],
      [
        "c",
        "c"
      ],
      [
        "▁",
        "K"
      ],
      [
        "i",
        "a"
      ],
      [
        "▁",
        "-"
      ],
      [
        "b",
        "er"
      ],
      [
        "p",
        "l"
      ],
      [
        "s",
        "o"
      ],
      [
        "▁t",
        "e"
      ],
      [
        "▁m",
        "y"
      ],
      [
        "▁c",
        "l"
      ],
      [
        "oo",
        "k"
      ],
      [
        "i",
        "ke"
      ],
      [
        "d",
        "u"
      ],
      [
        "▁",
        "im"
      ],
      [
        "f",
        "or"
      ],
      [
        "▁",
        "\n"
      ],
      [
        "▁on",
        "e"
      ],
      [
        "an",
        "ce"
      ],
      [
        "a",
        "ct"
      ],
      [
        "an",
        "s"
      ],
      [
        "ou",
        "s"
      ],
      [
        "r",
        "u"
      ],
      [
        "▁S",
        "t"
      ],
      [
        "ig",
        "n"
      ],
      [
        "am",
        "e"
      ],
      [
        "▁20",
        "1"
      ],
      [
        "▁",
        "V"
      ],
      [
        "▁con",
        "t"
      ],
      [
        "▁o",
        "ur"
      ],
      [
        "es",
        ","
      ],
      [
        "i",
        "e"
      ],
      [
        "▁ab",
        "out"
      ],
      [
        "▁I",
        "t"
      ],
      [
        "i",
        "re"
      ],
      [
        "▁m",
        "an"
      ],
      [
        "ul",
        "t"
      ],
      [
        "e",
        "p"
      ],
      [
        "▁",
        "3"
      ],
      [
        "i",
        "b"
      ],
      [
        "▁a",
        "pp"
      ],
      [
        "▁",
        "un"
      ],
      [
        "▁wh",
        "ich"
      ],
      [
        "as",
        "e"
      ],
      [
        "re",
        "e"
      ],
      [
        "c",
        "l"
      ],
      [
        "'",
        "t"
      ],
      [
        "▁re",
        "s"
      ],
      [
        "it",
        "ion"
      ],
      [
        "ar",
        "y"
      ],
      [
        "▁",
        "qu"
      ],
      [
        "a",
        "ce"
      ],
      [
        "▁g",
        "o"
      ],
      [
        "re",
        "at"
      ],
      [
        "▁s",
        "a"
      ],
      [
        "ve",
        "l"
      ],
      [
        "a",
        "p"
      ],
      [
        "▁W",
        "e"
      ],
      [
        "▁wh",
        "o"
      ],
      [
        "a",
        "il"
      ],
      [
        "k",
        "s"
      ],
      [
        "ic",
        "al"
      ],
      [
        "u",
        "b"
      ],
      [
        "▁al",
        "so"
      ],
      [
        "▁t",
        "ime"
      ],
      [
        "▁p",
        "er"
      ],
      [
        "f",
        "f"
      ],
      [
        "v",
        "en"
      ],
      [
        "▁of",
        "f"
      ],
      [
        "en",
        "ce"
      ],
      [
        "▁C",
        "h"
      ],
      [
        "u",
        "e"
      ],
      [
        "i",
        "le"
      ],
      [
        "n",
        "e"
      ],
      [
        "▁o",
        "ther"
      ],
      [
        "ou",
        "nt"
      ],
      [
        "▁g",
        "et"
      ],
      [
        "▁l",
        "ike"
      ],
      [
        "a",
        "ch"
      ],
      [
        "er",
        "v"
      ],
      [
        "▁h",
        "is"
      ],
      [
        "▁in",
        "t"
      ],
      [
        "a",
        "k"
      ],
      [
        "▁an",
        "y"
      ],
      [
        "p",
        "ort"
      ],
      [
        "as",
        "s"
      ],
      [
        "for",
        "m"
      ],
      [
        "▁d",
        "is"
      ],
      [
        "ow",
        "n"
      ],
      [
        "▁s",
        "ome"
      ],
      [
        "on",
        "d"
      ],
      [
        "▁n",
        "ew"
      ],
      [
        "▁Th",
        "is"
      ],
      [
        "▁the",
        "m"
      ],
      [
        "ar",
        "k"
      ],
      [
        "▁y",
        "ear"
      ],
      [
        "o",
        "ve"
      ],
      [
        "ay",
        "s"
      ],
      [
        "▁",
        "ro"
      ],
      [
        "a",
        "v"
      ],
      [
        "▁p",
        "art"
      ],
      [
        "▁R",
        "e"
      ],
      [
        "▁a",
        "g"
      ],
      [
        "ic",
        "k"
      ],
      [
        "▁the",
        "re"
      ],
      [
        "▁whe",
        "n"
      ],
      [
        "▁",
        "if"
      ],
      [
        "c",
        "k"
      ],
      [
        "▁t",
        "r"
      ],
      [
        "o",
        "b"
      ],
      [
        "ation",
        "s"
      ],
      [
        "▁k",
        "n"
      ],
      [
        "▁o",
        "ver"
      ],
      [
        "▁be",
        "en"
      ],
      [
        "▁p",
        "e"
      ],
      [
        "o",
        "se"
      ],
      [
        "res",
        "s"
      ],
      [
        "▁f",
        "e"
      ],
      [
        "▁a",
        "m"
      ],
      [
        "▁ne",
        "ed"
      ],
      [
        "▁wh",
        "at"
      ],
      [
        "▁H",
        "e"
      ],
      [
        "▁re",
        "c"
      ],
      [
        "▁s",
        "pe"
      ],
      [
        "▁p",
        "re"
      ],
      [
        "▁h",
        "ad"
      ],
      [
        "▁s",
        "c"
      ],
      [
        "▁s",
        "p"
      ],
      [
        "▁w",
        "ould"
      ],
      [
        "ou",
        "gh"
      ],
      [
        "▁we",
        "re"
      ],
      [
        "▁a",
        "r"
      ],
      [
        "▁j",
        "ust"
      ],
      [
        "is",
        "h"
      ],
      [
        "en",
        "s"
      ],
      [
        "ion",
        "s"
      ],
      [
        "y",
        ","
      ],
      [
        "or",
        "d"
      ],
      [
        "o",
        "v"
      ],
      [
        "nd",
        "er"
      ],
      [
        "es",
        "."
      ],
      [
        "▁th",
        "an"
      ],
      [
        "a",
        "ke"
      ],
      [
        "n",
        "ing"
      ],
      [
        "▁wor",
        "k"
      ],
      [
        "il",
        "d"
      ],
      [
        "▁it",
        "s"
      ],
      [
        "ent",
        "s"
      ],
      [
        "in",
        "t"
      ],
      [
        "▁h",
        "ow"
      ],
      [
        "re",
        "n"
      ],
      [
        "ou",
        "nd"
      ],
      [
        "▁a",
        "cc"
      ],
      [
        "at",
        "er"
      ],
      [
        "us",
        "e"
      ],
      [
        "▁",
        "5"
      ],
      [
        "m",
        "er"
      ],
      [
        "ol",
        "d"
      ],
      [
        "ir",
        "st"
      ],
      [
        "op",
        "le"
      ],
      [
        "▁be",
        "c"
      ],
      [
        "or",
        "s"
      ],
      [
        "w",
        "n"
      ],
      [
        "▁c",
        "o"
      ],
      [
        "▁",
        "4"
      ],
      [
        "an",
        "c"
      ],
      [
        "o",
        "y"
      ],
      [
        "▁he",
        "r"
      ],
      [
        "▁d",
        "es"
      ],
      [
        "ver",
        "s"
      ],
      [
        "l",
        "p"
      ],
      [
        "on",
        "t"
      ],
      [
        "ing",
        "s"
      ],
      [
        "▁Y",
        "ou"
      ],
      [
        "rou",
        "gh"
      ],
      [
        "▁int",
        "o"
      ],
      [
        "i",
        "ew"
      ],
      [
        "an",
        "g"
      ],
      [
        "ing",
        ","
      ],
      [
        "▁m",
        "ay"
      ],
      [
        "f",
        "ter"
      ],
      [
        "ad",
        "e"
      ],
      [
        "l",
        "ic"
      ],
      [
        "▁he",
        "lp"
      ],
      [
        "▁ad",
        "d"
      ],
      [
        "r",
        "ic"
      ],
      [
        "▁pe",
        "ople"
      ],
      [
        "w",
        "e"
      ],
      [
        "it",
        "t"
      ],
      [
        "in",
        "k"
      ],
      [
        "▁n",
        "o"
      ],
      [
        "▁W",
        "h"
      ],
      [
        "▁ma",
        "ke"
      ],
      [
        "▁us",
        "e"
      ],
      [
        "or",
        "y"
      ],
      [
        "cl",
        "ud"
      ],
      [
        "i",
        "an"
      ],
      [
        "re",
        "nt"
      ],
      [
        "u",
        "al"
      ],
      [
        "▁pro",
        "v"
      ],
      [
        "p",
        "h"
      ],
      [
        "s",
        ".\n"
      ],
      [
        "f",
        "t"
      ],
      [
        "▁com",
        "m"
      ],
      [
        "▁we",
        "ll"
      ],
      [
        "▁t",
        "ra"
      ],
      [
        "▁b",
        "et"
      ],
      [
        "▁b",
        "u"
      ],
      [
        "▁f",
        "l"
      ],
      [
        "i",
        "ly"
      ],
      [
        "▁m",
        "ost"
      ],
      [
        "▁b",
        "l"
      ],
      [
        "at",
        "ing"
      ],
      [
        "▁in",
        "d"
      ],
      [
        "▁t",
        "w"
      ],
      [
        "ter",
        "n"
      ],
      [
        "▁pro",
        "du"
      ],
      [
        "▁kn",
        "ow"
      ],
      [
        "he",
        "d"
      ],
      [
        "▁f",
        "irst"
      ],
      [
        "e",
        "nd"
      ],
      [
        "▁a",
        "ct"
      ],
      [
        "e",
        "ct"
      ],
      [
        "i",
        "ous"
      ],
      [
        "is",
        "e"
      ],
      [
        "u",
        "ll"
      ],
      [
        "▁A",
        "s"
      ],
      [
        "▁on",
        "ly"
      ],
      [
        "p",
        "le"
      ],
      [
        "r",
        "am"
      ],
      [
        "▁s",
        "erv"
      ],
      [
        "▁sa",
        "id"
      ],
      [
        "▁con",
        "s"
      ],
      [
        "▁p",
        "o"
      ],
      [
        "a",
        "use"
      ],
      [
        "▁1",
        "9"
      ],
      [
        "c",
        "om"
      ],
      [
        "on",
        "s"
      ],
      [
        "▁C",
        "om"
      ],
      [
        "▁th",
        "rough"
      ],
      [
        "▁e",
        "very"
      ],
      [
        "▁I",
        "f"
      ],
      [
        "▁",
        "very"
      ],
      [
        "▁w",
        "ant"
      ],
      [
        "▁p",
        "h"
      ],
      [
        "if",
        "ic"
      ],
      [
        "▁in",
        "clud"
      ],
      [
        "he",
        "n"
      ],
      [
        "2",
        "0"
      ],
      [
        "it",
        "ies"
      ],
      [
        "▁se",
        "e"
      ],
      [
        "rou",
        "nd"
      ],
      [
        "fe",
        "ct"
      ],
      [
        "▁u",
        "nder"
      ],
      [
        "▁S",
        "e"
      ],
      [
        "▁su",
        "pp"
      ],
      [
        "▁the",
        "se"
      ],
      [
        "▁d",
        "if"
      ],
      [
        "le",
        "ct"
      ],
      [
        "en",
        "c"
      ],
      [
        "d",
        "ay"
      ],
      [
        "ment",
        "s"
      ],
      [
        "▁b",
        "ack"
      ],
      [
        "▁p",
        "r"
      ],
      [
        "▁s",
        "he"
      ],
      [
        "y",
        "st"
      ],
      [
        "▁P",
        "ro"
      ],
      [
        "et",
        "h"
      ],
      [
        "er",
        "t"
      ],
      [
        "x",
        "t"
      ],
      [
        "▁A",
        "n"
      ],
      [
        "l",
        "es"
      ],
      [
        "at",
        "es"
      ],
      [
        "▁",
        "&"
      ],
      [
        "▁ex",
        "per"
      ],
      [
        "j",
        "ect"
      ],
      [
        "ro",
        "w"
      ],
      [
        "▁D",
        "e"
      ],
      [
        "r",
        "it"
      ],
      [
        "▁pl",
        "ay"
      ],
      [
        "▁g",
        "ood"
      ],
      [
        "▁e",
        "m"
      ],
      [
        "▁",
        "|"
      ],
      [
        "l",
        "ine"
      ],
      [
        "c",
        "ess"
      ],
      [
        "f",
        "ore"
      ],
      [
        "ot",
        "h"
      ],
      [
        "u",
        "ch"
      ],
      [
        "▁tw",
        "o"
      ],
      [
        "t",
        "ing"
      ],
      [
        "▁in",
        "v"
      ],
      [
        "n",
        "'t"
      ],
      [
        "f",
        "ul"
      ],
      [
        "▁re",
        "l"
      ],
      [
        "▁a",
        "fter"
      ],
      [
        "▁c",
        "ould"
      ],
      [
        "o",
        "ll"
      ],
      [
        "ur",
        "n"
      ],
      [
        "ers",
        "on"
      ],
      [
        "▁",
        "ke"
      ],
      [
        "▁w",
        "ay"
      ],
      [
        "▁as",
        "s"
      ],
      [
        "▁p",
        "os"
      ],
      [
        "in",
        "ess"
      ],
      [
        "er",
        ","
      ],
      [
        "if",
        "e"
      ],
      [
        "il",
        "ity"
      ],
      [
        "b",
        "s"
      ],
      [
        "▁",
        "'"
      ],
      [
        "i",
        "ence"
      ],
      [
        "ul",
        "ar"
      ],
      [
        "c",
        "ial"
      ],
      [
        "▁st",
        "ud"
      ],
      [
        "▁re",
        "g"
      ],
      [
        "is",
        "s"
      ],
      [
        "▁e",
        "ven"
      ],
      [
        "▁b",
        "us"
      ],
      [
        "er",
        "m"
      ],
      [
        "▁U",
        "n"
      ],
      [
        "▁A",
        "nd"
      ],
      [
        "a",
        "w"
      ],
      [
        "▁sh",
        "ould"
      ],
      [
        "ib",
        "le"
      ],
      [
        "an",
        "ge"
      ],
      [
        "as",
        "ed"
      ],
      [
        "▁F",
        "or"
      ],
      [
        "▁c",
        "ol"
      ],
      [
        "▁",
        "6"
      ],
      [
        "▁g",
        "reat"
      ],
      [
        "▁man",
        "y"
      ],
      [
        "se",
        "l"
      ],
      [
        "ol",
        "og"
      ],
      [
        "▁in",
        "c"
      ],
      [
        "yst",
        "em"
      ],
      [
        "oc",
        "k"
      ],
      [
        "b",
        "le"
      ],
      [
        "▁re",
        "m"
      ],
      [
        "o",
        "ol"
      ],
      [
        "pe",
        "ct"
      ],
      [
        "vel",
        "op"
      ],
      [
        "ed",
        ","
      ],
      [
        "▁whe",
        "re"
      ],
      [
        "▁s",
        "m"
      ],
      [
        "▁b",
        "est"
      ],
      [
        "ar",
        "ch"
      ],
      [
        "at",
        "ure"
      ],
      [
        "t",
        "t"
      ],
      [
        "▁a",
        "c"
      ],
      [
        "▁",
        "ra"
      ],
      [
        "g",
        "et"
      ],
      [
        "▁f",
        "in"
      ],
      [
        "▁the",
        "n"
      ],
      [
        "▁h",
        "igh"
      ],
      [
        "ow",
        "er"
      ],
      [
        "at",
        "h"
      ],
      [
        "an",
        "y"
      ],
      [
        "i",
        "ent"
      ],
      [
        "▁N",
        "ew"
      ],
      [
        "at",
        "ive"
      ],
      [
        "v",
        "ent"
      ],
      [
        "▁n",
        "ow"
      ],
      [
        "ra",
        "ct"
      ],
      [
        "▁st",
        "art"
      ],
      [
        "▁S",
        "h"
      ],
      [
        "▁",
        "$"
      ],
      [
        "▁d",
        "ay"
      ],
      [
        "▁1",
        "0"
      ],
      [
        "a",
        ","
      ],
      [
        "▁A",
        "l"
      ],
      [
        "ation",
        "al"
      ],
      [
        "▁f",
        "ind"
      ],
      [
        "▁se",
        "c"
      ],
      [
        "▁im",
        "p"
      ],
      [
        "▁I",
        "'"
      ],
      [
        "ark",
        "et"
      ],
      [
        "ur",
        "ing"
      ],
      [
        "▁m",
        "in"
      ],
      [
        "▁g",
        "u"
      ],
      [
        "▁",
        "7"
      ],
      [
        "w",
        "ard"
      ],
      [
        "al",
        "th"
      ],
      [
        "▁m",
        "uch"
      ],
      [
        "▁",
        "ent"
      ],
      [
        "ing",
        "."
      ],
      [
        "y",
        "s"
      ],
      [
        "▁o",
        "wn"
      ],
      [
        "▁c",
        "ar"
      ],
      [
        "▁bec",
        "ause"
      ],
      [
        "▁in",
        "st"
      ],
      [
        "▁su",
        "ch"
      ],
      [
        "▁s",
        "et"
      ],
      [
        "▁r",
        "ight"
      ],
      [
        "▁at",
        "t"
      ],
      [
        "▁l",
        "ook"
      ],
      [
        "en",
        "er"
      ],
      [
        "id",
        "ent"
      ],
      [
        "y",
        "."
      ],
      [
        "!",
        "\n"
      ],
      [
        "▁20",
        "0"
      ],
      [
        "ed",
        "."
      ],
      [
        "▁l",
        "oc"
      ],
      [
        "▁re",
        "ad"
      ],
      [
        "▁re",
        "qu"
      ],
      [
        "▁l",
        "ong"
      ],
      [
        "▁B",
        "e"
      ],
      [
        "v",
        "iew"
      ],
      [
        "▁d",
        "own"
      ],
      [
        "▁d",
        "id"
      ],
      [
        "u",
        "p"
      ],
      [
        "▁dif",
        "fe"
      ],
      [
        "u",
        "ally"
      ],
      [
        "▁de",
        "c"
      ],
      [
        "ic",
        "t"
      ],
      [
        "u",
        "nd"
      ],
      [
        "on",
        "'t"
      ],
      [
        "▁t",
        "ake"
      ],
      [
        "as",
        "h"
      ],
      [
        "▁in",
        "s"
      ],
      [
        "▁to",
        "o"
      ],
      [
        "i",
        "ed"
      ],
      [
        "a",
        "ir"
      ],
      [
        "or",
        "k"
      ],
      [
        "it",
        "ed"
      ],
      [
        "ot",
        "her"
      ],
      [
        "▁in",
        "te"
      ],
      [
        "form",
        "ation"
      ],
      [
        "g",
        "an"
      ],
      [
        "▁c",
        "he"
      ],
      [
        "i",
        "o"
      ],
      [
        "ri",
        "b"
      ],
      [
        "▁",
        "0"
      ],
      [
        "h",
        "ip"
      ],
      [
        "▁H",
        "ow"
      ],
      [
        "▁s",
        "im"
      ],
      [
        "▁tr",
        "ans"
      ],
      [
        "ic",
        "es"
      ],
      [
        "?",
        "\n"
      ],
      [
        "t",
        "s"
      ],
      [
        "▁",
        "8"
      ],
      [
        ")",
        ","
      ],
      [
        "▁h",
        "ome"
      ],
      [
        "▁be",
        "fore"
      ],
      [
        "▁E",
        "n"
      ],
      [
        "s",
        "s"
      ],
      [
        "e",
        "ll"
      ],
      [
        "▁do",
        "es"
      ],
      [
        "c",
        "o"
      ],
      [
        "▁p",
        "erson"
      ],
      [
        "▁be",
        "ing"
      ],
      [
        "ch",
        "n"
      ],
      [
        "▁us",
        "ed"
      ],
      [
        "▁m",
        "on"
      ],
      [
        "▁de",
        "velop"
      ],
      [
        "▁ag",
        "ain"
      ],
      [
        "▁C",
        "l"
      ],
      [
        "▁s",
        "ystem"
      ],
      [
        "▁p",
        "res"
      ],
      [
        "▁m",
        "od"
      ],
      [
        "▁O",
        "n"
      ],
      [
        "i",
        "x"
      ],
      [
        "▁produ",
        "ct"
      ],
      [
        "am",
        "p"
      ],
      [
        "..",
        "."
      ],
      [
        "▁m",
        "ade"
      ],
      [
        "▁h",
        "im"
      ],
      [
        "s",
        "\n"
      ],
      [
        "an",
        "k"
      ],
      [
        "▁bus",
        "iness"
      ],
      [
        "g",
        "ram"
      ],
      [
        "v",
        "ing"
      ],
      [
        "u",
        "g"
      ],
      [
        "as",
        "on"
      ],
      [
        "▁he",
        "re"
      ],
      [
        "▁a",
        "v"
      ],
      [
        "▁s",
        "ur"
      ],
      [
        "l",
        "and"
      ],
      [
        "ion",
        "al"
      ],
      [
        "▁be",
        "l"
      ],
      [
        "▁su",
        "b"
      ],
      [
        "▁f",
        "am"
      ],
      [
        "▁th",
        "ose"
      ],
      [
        "▁b",
        "r"
      ],
      [
        "p",
        "r"
      ],
      [
        "▁des",
        "ign"
      ],
      [
        "▁B",
        "ut"
      ],
      [
        ")",
        "\n"
      ],
      [
        "f",
        "fect"
      ],
      [
        "▁e",
        "nd"
      ],
      [
        "▁A",
        "d"
      ],
      [
        "w",
        "ay"
      ],
      [
        "ou",
        "se"
      ],
      [
        "re",
        "st"
      ],
      [
        "▁sh",
        "ow"
      ],
      [
        "▁",
        "9"
      ],
      [
        "al",
        "ity"
      ],
      [
        "al",
        "e"
      ],
      [
        "ch",
        "ool"
      ],
      [
        "▁The",
        "re"
      ],
      [
        "▁L",
        "e"
      ],
      [
        "▁d",
        "et"
      ],
      [
        "▁n",
        "um"
      ],
      [
        "▁re",
        "ally"
      ],
      [
        "it",
        "s"
      ],
      [
        "in",
        "ce"
      ],
      [
        "'",
        "re"
      ],
      [
        "oll",
        "ow"
      ],
      [
        ")",
        "."
      ],
      [
        "a",
        "z"
      ],
      [
        "ar",
        "m"
      ],
      [
        "▁wor",
        "ld"
      ],
      [
        "▁we",
        "e"
      ],
      [
        "▁s",
        "om"
      ],
      [
        "a",
        "ve"
      ],
      [
        ":",
        "\n"
      ],
      [
        "\"",
        "\n"
      ],
      [
        "ce",
        "pt"
      ],
      [
        "▁A",
        "r"
      ],
      [
        "▁ha",
        "nd"
      ],
      [
        "at",
        "ch"
      ],
      [
        "▁c",
        "all"
      ],
      [
        "ers",
        ","
      ],
      [
        "▁v",
        "is"
      ],
      [
        "▁m",
        "ed"
      ],
      [
        "▁c",
        "re"
      ],
      [
        "he",
        "s"
      ],
      [
        "p",
        "en"
      ],
      [
        "▁th",
        "ink"
      ],
      [
        "▁p",
        "ost"
      ],
      [
        "▁l",
        "ife"
      ],
      [
        "ust",
        "om"
      ],
      [
        "▁e",
        "as"
      ],
      [
        "▁g",
        "r"
      ],
      [
        "▁ar",
        "t"
      ],
      [
        "▁prov",
        "id"
      ],
      [
        "ou",
        "n"
      ],
      [
        "o",
        "ad"
      ],
      [
        "▁m",
        "arket"
      ],
      [
        "ly",
        ","
      ],
      [
        "ol",
        "ut"
      ],
      [
        "iz",
        "e"
      ],
      [
        "▁diffe",
        "rent"
      ],
      [
        "▁wh",
        "ile"
      ],
      [
        "▁year",
        "s"
      ],
      [
        "in",
        "es"
      ],
      [
        "▁in",
        "ter"
      ],
      [
        "▁s",
        "l"
      ],
      [
        "en",
        "e"
      ],
      [
        "i",
        "et"
      ],
      [
        "▁S",
        "o"
      ],
      [
        "at",
        "her"
      ],
      [
        "▁in",
        "formation"
      ],
      [
        "▁c",
        "ur"
      ],
      [
        "ic",
        "s"
      ],
      [
        "al",
        "s"
      ],
      [
        "▁c",
        "le"
      ],
      [
        "c",
        "ed"
      ],
      [
        "▁s",
        "ign"
      ],
      [
        "re",
        "ad"
      ],
      [
        "i",
        "vers"
      ],
      [
        "sel",
        "f"
      ],
      [
        "▁l",
        "ot"
      ],
      [
        "▁comp",
        "le"
      ],
      [
        "▁c",
        "our"
      ],
      [
        "▁E",
        "x"
      ],
      [
        "▁supp",
        "ort"
      ],
      [
        "ation",
        ","
      ],
      [
        "c",
        "es"
      ],
      [
        "▁re",
        "t"
      ],
      [
        "▁for",
        "m"
      ],
      [
        "▁te",
        "am"
      ],
      [
        "▁e",
        "ar"
      ],
      [
        "p",
        "s"
      ],
      [
        "▁it",
        "'s"
      ],
      [
        "at",
        "a"
      ],
      [
        "▁a",
        "ut"
      ],
      [
        "ub",
        "lic"
      ],
      [
        "▁le",
        "ad"
      ],
      [
        "▁P",
        "l"
      ],
      [
        "▁e",
        "ach"
      ],
      [
        "e",
        "ver"
      ],
      [
        "▁th",
        "ough"
      ],
      [
        "▁st",
        "r"
      ],
      [
        "▁The",
        "y"
      ],
      [
        "-",
        "1"
      ],
      [
        "▁l",
        "ast"
      ],
      [
        "▁s",
        "k"
      ],
      [
        "▁a",
        "round"
      ],
      [
        "▁T",
        "e"
      ],
      [
        "▁f",
        "ree"
      ],
      [
        "d",
        "er"
      ],
      [
        "a",
        "x"
      ],
      [
        "t",
        "y"
      ],
      [
        "it",
        "al"
      ],
      [
        "▁p",
        "ol"
      ],
      [
        "▁go",
        "ing"
      ],
      [
        "▁c",
        "r"
      ],
      [
        "▁m",
        "em"
      ],
      [
        "▁f",
        "ollow"
      ],
      [
        "▁pro",
        "cess"
      ],
      [
        "l",
        "ed"
      ],
      [
        "u",
        "es"
      ],
      [
        "we",
        "en"
      ],
      [
        "o",
        "ot"
      ],
      [
        "▁f",
        "un"
      ],
      [
        "i",
        "er"
      ],
      [
        "▁on",
        "line"
      ],
      [
        "ra",
        "nd"
      ],
      [
        "▁T",
        "o"
      ],
      [
        "▁us",
        "ing"
      ],
      [
        "▁s",
        "ay"
      ],
      [
        "▁s",
        "ame"
      ],
      [
        "▁",
        "Q"
      ],
      [
        "▁v",
        "ar"
      ],
      [
        "▁pro",
        "f"
      ],
      [
        "▁comm",
        "un"
      ],
      [
        "▁c",
        "ount"
      ],
      [
        "▁t",
        "y"
      ],
      [
        "▁d",
        "on't"
      ],
      [
        "i",
        "el"
      ],
      [
        "u",
        "c"
      ],
      [
        "▁ex",
        "p"
      ],
      [
        "▁re",
        "p"
      ],
      [
        "n",
        "er"
      ],
      [
        "▁p",
        "ur"
      ],
      [
        "▁im",
        "port"
      ],
      [
        "▁st",
        "ill"
      ],
      [
        "▁f",
        "ew"
      ],
      [
        "a",
        "king"
      ],
      [
        "▁to",
        "p"
      ],
      [
        "▁c",
        "are"
      ],
      [
        "a",
        "h"
      ],
      [
        "▁ex",
        "t"
      ],
      [
        "▁ad",
        "v"
      ],
      [
        "▁pro",
        "gram"
      ],
      [
        "..",
        ".\n"
      ],
      [
        "▁ch",
        "ar"
      ],
      [
        "▁B",
        "l"
      ],
      [
        "i",
        "red"
      ],
      [
        "▁fe",
        "el"
      ],
      [
        "▁I",
        "nd"
      ],
      [
        "▁",
        "ed"
      ],
      [
        "▁s",
        "er"
      ],
      [
        "ire",
        "ct"
      ],
      [
        "▁b",
        "oth"
      ],
      [
        "▁bet",
        "ween"
      ],
      [
        "▁",
        "["
      ],
      [
        "▁pl",
        "an"
      ],
      [
        "oo",
        "king"
      ],
      [
        "▁dis",
        "c"
      ],
      [
        "00",
        "0"
      ],
      [
        "w",
        "ays"
      ],
      [
        "▁l",
        "ist"
      ],
      [
        "in",
        "s"
      ],
      [
        "▁b",
        "ook"
      ],
      [
        "itt",
        "le"
      ],
      [
        "▁ch",
        "ild"
      ],
      [
        "ri",
        "v"
      ],
      [
        "ri",
        "end"
      ],
      [
        "▁pl",
        "ace"
      ],
      [
        "iz",
        "ed"
      ],
      [
        "▁ha",
        "pp"
      ],
      [
        "t",
        "on"
      ],
      [
        "▁av",
        "ail"
      ],
      [
        "▁",
        "i"
      ],
      [
        "▁o",
        "pt"
      ],
      [
        "▁P",
        "h"
      ],
      [
        "▁ke",
        "ep"
      ],
      [
        "▁g",
        "l"
      ],
      [
        "▁pos",
        "s"
      ],
      [
        "iv",
        "es"
      ],
      [
        "-",
        "t"
      ],
      [
        "▁po",
        "int"
      ],
      [
        "▁g",
        "ener"
      ],
      [
        "▁c",
        "or"
      ],
      [
        "ag",
        "es"
      ],
      [
        "m",
        "an"
      ],
      [
        "n",
        "ess"
      ],
      [
        "▁A",
        "ll"
      ],
      [
        "▁l",
        "ove"
      ],
      [
        "▁c",
        "ustom"
      ],
      [
        "▁S",
        "c"
      ],
      [
        "ort",
        "h"
      ],
      [
        "▁te",
        "chn"
      ],
      [
        "▁l",
        "ar"
      ],
      [
        "▁v",
        "al"
      ],
      [
        "▁re",
        "al"
      ],
      [
        "▁r",
        "un"
      ],
      [
        "▁exper",
        "ience"
      ],
      [
        "g",
        "g"
      ],
      [
        "▁le",
        "ar"
      ],
      [
        "▁f",
        "ull"
      ],
      [
        "▁d",
        "el"
      ],
      [
        "▁res",
        "ult"
      ],
      [
        "▁Wh",
        "at"
      ],
      [
        "l",
        "ess"
      ],
      [
        "▁f",
        "ound"
      ],
      [
        "▁mon",
        "th"
      ],
      [
        "▁b",
        "o"
      ],
      [
        "▁m",
        "ain"
      ],
      [
        "-",
        "b"
      ],
      [
        "a",
        "u"
      ],
      [
        "▁ex",
        "am"
      ],
      [
        "▁he",
        "alth"
      ],
      [
        "t",
        "en"
      ],
      [
        ".",
        "com"
      ],
      [
        "in",
        "ing"
      ],
      [
        "c",
        "on"
      ],
      [
        "▁o",
        "b"
      ],
      [
        "g",
        "er"
      ],
      [
        "▁f",
        "act"
      ],
      [
        "ro",
        "ss"
      ],
      [
        "rou",
        "p"
      ],
      [
        "▁W",
        "hen"
      ],
      [
        "-",
        "s"
      ],
      [
        "ble",
        "m"
      ],
      [
        "▁1",
        "2"
      ],
      [
        "▁st",
        "ate"
      ],
      [
        "w",
        "w"
      ],
      [
        "▁part",
        "ic"
      ],
      [
        "ver",
        "n"
      ],
      [
        "ic",
        "ally"
      ],
      [
        "le",
        "ase"
      ],
      [
        "▁bet",
        "ter"
      ],
      [
        "▁e",
        "v"
      ],
      [
        "▁is",
        "s"
      ],
      [
        "er",
        "n"
      ],
      [
        "w",
        "are"
      ],
      [
        "▁avail",
        "able"
      ],
      [
        "er",
        "ing"
      ],
      [
        "▁th",
        "ree"
      ],
      [
        "▁C",
        "on"
      ],
      [
        "▁de",
        "f"
      ],
      [
        "2",
        "1"
      ],
      [
        "st",
        "and"
      ],
      [
        "▁p",
        "ay"
      ],
      [
        "i",
        "qu"
      ],
      [
        "im",
        "es"
      ],
      [
        "al",
        "k"
      ],
      [
        "e",
        ","
      ],
      [
        "▁W",
        "ith"
      ],
      [
        "▁l",
        "ittle"
      ],
      [
        "▁d",
        "uring"
      ],
      [
        "▁g",
        "ame"
      ],
      [
        "ur",
        "al"
      ],
      [
        "▁m",
        "ight"
      ],
      [
        "▁app",
        "ro"
      ],
      [
        "▁p",
        "at"
      ],
      [
        "▁e",
        "ffect"
      ],
      [
        "▁re",
        "port"
      ],
      [
        "▁al",
        "ways"
      ],
      [
        "r",
        "al"
      ],
      [
        "▁o",
        "pen"
      ],
      [
        "v",
        "ed"
      ],
      [
        "▁comp",
        "any"
      ],
      [
        "ert",
        "ain"
      ],
      [
        "▁t",
        "ry"
      ],
      [
        "▁with",
        "out"
      ],
      [
        "▁re",
        "f"
      ],
      [
        "▁res",
        "p"
      ],
      [
        "is",
        "hed"
      ],
      [
        "▁num",
        "ber"
      ],
      [
        "at",
        "t"
      ],
      [
        "▁bu",
        "ild"
      ],
      [
        "▁sm",
        "all"
      ],
      [
        "▁c",
        "ent"
      ],
      [
        "iel",
        "d"
      ],
      [
        "▁all",
        "ow"
      ],
      [
        "ro",
        "l"
      ],
      [
        "ion",
        ","
      ],
      [
        "am",
        "es"
      ],
      [
        "▁inte",
        "rest"
      ],
      [
        "ure",
        "s"
      ],
      [
        "▁import",
        "ant"
      ],
      [
        "▁s",
        "ure"
      ],
      [
        "▁serv",
        "ice"
      ],
      [
        "ate",
        "g"
      ],
      [
        "ar",
        "s"
      ],
      [
        "▁pro",
        "blem"
      ],
      [
        "▁d",
        "ist"
      ],
      [
        "▁S",
        "he"
      ],
      [
        "E",
        "R"
      ],
      [
        "a",
        "red"
      ],
      [
        "▁f",
        "il"
      ],
      [
        "▁T",
        "r"
      ],
      [
        "▁st",
        "and"
      ],
      [
        "▁re",
        "st"
      ],
      [
        "mer",
        "ic"
      ],
      [
        "▁m",
        "ust"
      ],
      [
        "ra",
        "ph"
      ],
      [
        "▁d",
        "ata"
      ],
      [
        "▁",
        "Z"
      ],
      [
        "▁b",
        "ig"
      ],
      [
        "ction",
        "s"
      ],
      [
        "▁fam",
        "ily"
      ],
      [
        "▁we",
        "bs"
      ],
      [
        "▁s",
        "oc"
      ],
      [
        "re",
        "en"
      ],
      [
        "▁c",
        "ost"
      ],
      [
        "▁pro",
        "ject"
      ],
      [
        "▁com",
        "e"
      ],
      [
        "▁s",
        "chool"
      ],
      [
        "▁or",
        "gan"
      ],
      [
        "▁",
        "ide"
      ],
      [
        "▁p",
        "ut"
      ],
      [
        "▁cont",
        "in"
      ],
      [
        "▁S",
        "p"
      ],
      [
        "▁con",
        "f"
      ],
      [
        "▁qu",
        "est"
      ],
      [
        "ent",
        "ial"
      ],
      [
        "▁d",
        "ri"
      ],
      [
        "▁w",
        "ater"
      ],
      [
        "▁s",
        "ince"
      ],
      [
        "▁w",
        "r"
      ],
      [
        "▁I",
        "s"
      ],
      [
        "▁J",
        "o"
      ],
      [
        "b",
        "e"
      ],
      [
        "▁1",
        "1"
      ],
      [
        "ff",
        "ic"
      ],
      [
        "k",
        "es"
      ],
      [
        "od",
        "y"
      ],
      [
        "th",
        "ing"
      ],
      [
        "▁le",
        "vel"
      ],
      [
        "▁f",
        "r"
      ],
      [
        "ation",
        "."
      ],
      [
        "iv",
        "ing"
      ],
      [
        "▁ab",
        "le"
      ],
      [
        "▁R",
        "es"
      ],
      [
        "▁includ",
        "ing"
      ],
      [
        "a",
        "ut"
      ],
      [
        "▁",
        "ve"
      ],
      [
        "▁th",
        "ings"
      ],
      [
        "a",
        "."
      ],
      [
        "/",
        "/"
      ],
      [
        "▁s",
        "it"
      ],
      [
        "▁inc",
        "re"
      ],
      [
        "▁C",
        "ol"
      ],
      [
        "▁in",
        "f"
      ],
      [
        "▁pro",
        "per"
      ],
      [
        "in",
        "ed"
      ],
      [
        "▁som",
        "eth"
      ],
      [
        "et",
        "s"
      ],
      [
        "is",
        "m"
      ],
      [
        "▁g",
        "ot"
      ],
      [
        "i",
        "ver"
      ],
      [
        "us",
        "s"
      ],
      [
        "▁o",
        "pp"
      ],
      [
        "l",
        "ing"
      ],
      [
        "▁h",
        "ard"
      ],
      [
        "▁per",
        "form"
      ],
      [
        "▁inv",
        "est"
      ],
      [
        "▁sec",
        "ond"
      ],
      [
        "is",
        "ion"
      ],
      [
        "pe",
        "nd"
      ],
      [
        "▁an",
        "other"
      ],
      [
        "i",
        "um"
      ],
      [
        "er",
        "."
      ],
      [
        "▁Th",
        "at"
      ],
      [
        "▁he",
        "ad"
      ],
      [
        "▁spe",
        "c"
      ],
      [
        "▁ro",
        "om"
      ],
      [
        "▁ne",
        "xt"
      ],
      [
        "1",
        "0"
      ],
      [
        "▁g",
        "row"
      ],
      [
        "ers",
        "."
      ],
      [
        "▁prov",
        "ide"
      ],
      [
        "ot",
        "e"
      ],
      [
        "m",
        "e"
      ],
      [
        "olog",
        "y"
      ],
      [
        "▁I'",
        "m"
      ],
      [
        "▁t",
        "est"
      ],
      [
        "▁wee",
        "k"
      ],
      [
        "c",
        "ent"
      ],
      [
        "▁re",
        "ce"
      ],
      [
        "▁A",
        "meric"
      ],
      [
        "in",
        "al"
      ],
      [
        "▁M",
        "ay"
      ],
      [
        "he",
        "re"
      ],
      [
        "▁N",
        "o"
      ],
      [
        "▁add",
        "ition"
      ],
      [
        "▁f",
        "riend"
      ],
      [
        "▁U",
        "S"
      ],
      [
        "one",
        "y"
      ],
      [
        "▁M",
        "an"
      ],
      [
        "ut",
        "e"
      ],
      [
        "▁",
        "."
      ],
      [
        "▁t",
        "ri"
      ],
      [
        "em",
        "ber"
      ],
      [
        "▁ne",
        "ver"
      ],
      [
        "▁en",
        "g"
      ],
      [
        "▁e",
        "qu"
      ],
      [
        "▁l",
        "ight"
      ],
      [
        "cc",
        "ess"
      ],
      [
        "▁P",
        "ost"
      ],
      [
        "▁A",
        "t"
      ],
      [
        "r",
        "ist"
      ],
      [
        "pl",
        "oy"
      ],
      [
        "us",
        "h"
      ],
      [
        "▁c",
        "as"
      ],
      [
        "▁with",
        "in"
      ],
      [
        "ant",
        "s"
      ],
      [
        "at",
        "or"
      ],
      [
        ",",
        "\""
      ],
      [
        "▁g",
        "ive"
      ],
      [
        "▁o",
        "ld"
      ],
      [
        "▁m",
        "ill"
      ],
      [
        "▁1",
        "8"
      ],
      [
        "▁someth",
        "ing"
      ],
      [
        "▁O",
        "r"
      ],
      [
        "▁w",
        "in"
      ],
      [
        "ic",
        "le"
      ],
      [
        "▁cur",
        "rent"
      ],
      [
        "▁p",
        "ower"
      ],
      [
        "ren",
        "ce"
      ],
      [
        "▁p",
        "ass"
      ],
      [
        "iv",
        "id"
      ],
      [
        "▁re",
        "se"
      ],
      [
        "i",
        "or"
      ],
      [
        "▁",
        "est"
      ],
      [
        "or",
        "n"
      ],
      [
        "an",
        "n"
      ],
      [
        "ivers",
        "ity"
      ],
      [
        "ort",
        "un"
      ],
      [
        "▁fe",
        "ature"
      ],
      [
        "▁m",
        "ov"
      ],
      [
        "▁I",
        "m"
      ],
      [
        "▁F",
        "r"
      ],
      [
        "▁or",
        "der"
      ],
      [
        "▁l",
        "ess"
      ],
      [
        "▁m",
        "us"
      ],
      [
        "ment",
        ","
      ],
      [
        "en",
        "se"
      ],
      [
        "ever",
        ","
      ],
      [
        "in",
        "o"
      ],
      [
        "g",
        "in"
      ],
      [
        "▁",
        "ess"
      ],
      [
        "r",
        "on"
      ],
      [
        "▁Com",
        "m"
      ],
      [
        "▁M",
        "y"
      ],
      [
        "-",
        "f"
      ],
      [
        "ru",
        "ct"
      ],
      [
        "▁cl",
        "ass"
      ],
      [
        "g",
        "r"
      ],
      [
        "▁C",
        "o"
      ],
      [
        "▁o",
        "per"
      ],
      [
        "▁spe",
        "cial"
      ],
      [
        "ot",
        "t"
      ],
      [
        ",",
        "000"
      ],
      [
        ":",
        "//"
      ],
      [
        "▁1",
        "5"
      ],
      [
        "▁ex",
        "pl"
      ],
      [
        "▁s",
        "ite"
      ],
      [
        "ent",
        "ion"
      ],
      [
        "p",
        "os"
      ],
      [
        "▁e",
        "l"
      ],
      [
        "▁j",
        "ob"
      ],
      [
        "er",
        "g"
      ],
      [
        "t",
        "ain"
      ],
      [
        "▁d",
        "irect"
      ],
      [
        "▁b",
        "re"
      ],
      [
        "2",
        "2"
      ],
      [
        "▁M",
        "ar"
      ],
      [
        "le",
        "t"
      ],
      [
        "▁c",
        "ase"
      ],
      [
        "▁in",
        "tern"
      ],
      [
        "i",
        "enc"
      ],
      [
        "▁webs",
        "ite"
      ],
      [
        "b",
        "ers"
      ],
      [
        "en",
        "g"
      ],
      [
        "▁s",
        "ing"
      ],
      [
        "▁",
        "/"
      ],
      [
        "o",
        "or"
      ],
      [
        "id",
        "er"
      ],
      [
        "▁b",
        "ro"
      ],
      [
        "▁p",
        "ublic"
      ],
      [
        "▁F",
        "e"
      ],
      [
        "el",
        "s"
      ],
      [
        "os",
        "s"
      ],
      [
        "p",
        "or"
      ],
      [
        "▁p",
        "op"
      ],
      [
        "j",
        "oy"
      ],
      [
        "ou",
        "th"
      ],
      [
        "▁pro",
        "te"
      ],
      [
        "▁b",
        "as"
      ],
      [
        "om",
        "m"
      ],
      [
        "▁wor",
        "king"
      ],
      [
        "▁re",
        "view"
      ],
      [
        "▁S",
        "u"
      ],
      [
        "▁v",
        "iew"
      ],
      [
        "▁c",
        "ap"
      ],
      [
        "▁O",
        "ur"
      ],
      [
        "or",
        "m"
      ],
      [
        "▁R",
        "ep"
      ],
      [
        "-",
        "c"
      ],
      [
        "▁",
        "#"
      ],
      [
        "▁ph",
        "ot"
      ],
      [
        "▁l",
        "ooking"
      ],
      [
        "ies",
        ","
      ],
      [
        "ie",
        "ve"
      ],
      [
        "▁app",
        "lic"
      ],
      [
        "b",
        "r"
      ],
      [
        "▁under",
        "stand"
      ],
      [
        "▁m",
        "et"
      ],
      [
        "m",
        "ber"
      ],
      [
        "ir",
        "on"
      ],
      [
        "ir",
        "d"
      ],
      [
        "o",
        ","
      ],
      [
        "y",
        "m"
      ],
      [
        "l",
        "i"
      ],
      [
        "▁bu",
        "y"
      ],
      [
        "▁cour",
        "se"
      ],
      [
        "e",
        "red"
      ],
      [
        "d",
        "ition"
      ],
      [
        "o",
        "int"
      ],
      [
        "▁k",
        "ind"
      ],
      [
        "▁acc",
        "ess"
      ],
      [
        "▁It",
        "'s"
      ],
      [
        "▁me",
        "et"
      ],
      [
        "ab",
        "ility"
      ],
      [
        "▁se",
        "em"
      ],
      [
        "ater",
        "ial"
      ],
      [
        "▁v",
        "ide"
      ],
      [
        "▁imp",
        "ro"
      ],
      [
        "T",
        "he"
      ],
      [
        "m",
        "in"
      ],
      [
        "on",
        ","
      ],
      [
        ".",
        "\"\n"
      ],
      [
        "ist",
        "s"
      ],
      [
        "I",
        "N"
      ],
      [
        "▁w",
        "rit"
      ],
      [
        "▁prof",
        "ess"
      ],
      [
        "▁w",
        "om"
      ],
      [
        "ab",
        "ly"
      ],
      [
        "▁pres",
        "ent"
      ],
      [
        "▁O",
        "ne"
      ],
      [
        "▁qu",
        "ality"
      ],
      [
        "▁h",
        "our"
      ],
      [
        "▁h",
        "ouse"
      ],
      [
        "▁th",
        "ing"
      ],
      [
        "▁M",
        "e"
      ],
      [
        "▁F",
        "l"
      ],
      [
        "▁col",
        "le"
      ],
      [
        "-",
        "p"
      ],
      [
        "▁C",
        "ar"
      ],
      [
        "l",
        "oad"
      ],
      [
        "▁p",
        "rom"
      ],
      [
        "▁t",
        "ak"
      ],
      [
        "at",
        "ter"
      ],
      [
        "▁C",
        "an"
      ],
      [
        "▁C",
        "ont"
      ],
      [
        "w",
        "ork"
      ],
      [
        "o",
        "pe"
      ],
      [
        "▁le",
        "g"
      ],
      [
        "▁again",
        "st"
      ],
      [
        "▁t",
        "erm"
      ],
      [
        "um",
        "p"
      ],
      [
        "▁act",
        "iv"
      ],
      [
        "▁le",
        "t"
      ],
      [
        "▁c",
        "a"
      ],
      [
        "i",
        "ents"
      ],
      [
        "▁f",
        "ac"
      ],
      [
        "▁loc",
        "al"
      ],
      [
        "od",
        "e"
      ],
      [
        "▁P",
        "r"
      ],
      [
        "v",
        "es"
      ],
      [
        "h",
        "or"
      ],
      [
        "▁h",
        "um"
      ],
      [
        "▁acc",
        "ount"
      ],
      [
        "▁ma",
        "king"
      ],
      [
        "re",
        "t"
      ],
      [
        "▁g",
        "roup"
      ],
      [
        "▁3",
        "0"
      ],
      [
        "▁vis",
        "it"
      ],
      [
        "ene",
        "f"
      ],
      [
        "▁ind",
        "ust"
      ],
      [
        "▁de",
        "v"
      ],
      [
        "l",
        "ish"
      ],
      [
        "i",
        "k"
      ],
      [
        "▁con",
        "st"
      ],
      [
        "it",
        "ive"
      ],
      [
        "▁to",
        "day"
      ],
      [
        "5",
        "0"
      ],
      [
        "▁En",
        "g"
      ],
      [
        "o",
        "x"
      ],
      [
        "g",
        "ed"
      ],
      [
        "-",
        "d"
      ],
      [
        "te",
        "nd"
      ],
      [
        "▁serv",
        "ices"
      ],
      [
        "▁de",
        "m"
      ],
      [
        "3",
        "0"
      ],
      [
        "▁a",
        "ir"
      ],
      [
        "'",
        "ll"
      ],
      [
        "▁go",
        "vern"
      ],
      [
        "▁p",
        "ract"
      ],
      [
        "if",
        "ied"
      ],
      [
        "▁A",
        "pp"
      ],
      [
        "con",
        "om"
      ],
      [
        "1",
        "9"
      ],
      [
        "▁con",
        "ne"
      ],
      [
        "▁you",
        "'re"
      ],
      [
        "▁ha",
        "ving"
      ],
      [
        "▁lar",
        "ge"
      ],
      [
        "ate",
        "ly"
      ],
      [
        "▁an",
        "n"
      ],
      [
        "▁act",
        "ually"
      ],
      [
        "▁h",
        "tt"
      ],
      [
        "▁ch",
        "ange"
      ],
      [
        "ivid",
        "ual"
      ],
      [
        "▁s",
        "al"
      ],
      [
        "▁it",
        "."
      ],
      [
        "▁e",
        "vent"
      ],
      [
        "▁n",
        "ame"
      ],
      [
        "ro",
        "om"
      ],
      [
        "oc",
        "us"
      ],
      [
        "▁N",
        "e"
      ],
      [
        "▁t",
        "urn"
      ],
      [
        "▁A",
        "m"
      ],
      [
        "▁al",
        "ong"
      ],
      [
        "m",
        "ed"
      ],
      [
        "olut",
        "ion"
      ],
      [
        "if",
        "y"
      ],
      [
        "a",
        "pp"
      ],
      [
        "▁ch",
        "ang"
      ],
      [
        "o",
        "f"
      ],
      [
        "▁\"",
        "I"
      ],
      [
        "re",
        "am"
      ],
      [
        "▁p",
        "a"
      ],
      [
        "▁comple",
        "te"
      ],
      [
        "▁Y",
        "our"
      ],
      [
        "iv",
        "en"
      ],
      [
        "▁n",
        "ight"
      ],
      [
        "▁",
        ","
      ],
      [
        "▁m",
        "ar"
      ],
      [
        "▁en",
        "joy"
      ],
      [
        "▁d",
        "ays"
      ],
      [
        "O",
        "N"
      ],
      [
        "▁B",
        "y"
      ],
      [
        "▁a",
        "way"
      ],
      [
        "▁t",
        "ru"
      ],
      [
        "es",
        ".\n"
      ],
      [
        "i",
        "pp"
      ],
      [
        "iss",
        "ion"
      ],
      [
        "▁Ch",
        "rist"
      ],
      [
        "v",
        "ious"
      ],
      [
        "▁s",
        "w"
      ],
      [
        "eth",
        "od"
      ],
      [
        "▁f",
        "our"
      ],
      [
        "▁child",
        "ren"
      ],
      [
        "is",
        "ed"
      ],
      [
        "▁Com",
        "p"
      ],
      [
        "▁b",
        "ased"
      ],
      [
        "age",
        "ment"
      ],
      [
        "▁un",
        "t"
      ],
      [
        "are",
        "nt"
      ],
      [
        "ord",
        "ing"
      ],
      [
        "un",
        "e"
      ],
      [
        "f",
        "er"
      ],
      [
        "▁p",
        "ar"
      ],
      [
        "E",
        "S"
      ],
      [
        "▁m",
        "oney"
      ],
      [
        "▁wh",
        "y"
      ],
      [
        "A",
        "R"
      ],
      [
        "ent",
        "ly"
      ],
      [
        "A",
        "T"
      ],
      [
        "▁as",
        "k"
      ],
      [
        "▁c",
        "ertain"
      ],
      [
        "▁f",
        "ood"
      ],
      [
        "▁de",
        "al"
      ],
      [
        "▁h",
        "ist"
      ],
      [
        "▁The",
        "se"
      ],
      [
        "▁poss",
        "ible"
      ],
      [
        "▁b",
        "it"
      ],
      [
        "▁l",
        "ine"
      ],
      [
        "▁C",
        "ent"
      ],
      [
        "du",
        "ct"
      ],
      [
        "▁l",
        "aw"
      ],
      [
        "oc",
        "i"
      ],
      [
        "▁wor",
        "d"
      ],
      [
        "▁comp",
        "an"
      ],
      [
        "▁an",
        "al"
      ],
      [
        "▁m",
        "aterial"
      ],
      [
        "A",
        "N"
      ],
      [
        "b",
        "ook"
      ],
      [
        "er",
        "y"
      ],
      [
        "▁to",
        "get"
      ],
      [
        "▁cont",
        "rol"
      ],
      [
        "ver",
        "al"
      ],
      [
        "▁toget",
        "her"
      ],
      [
        "pe",
        "cial"
      ],
      [
        "▁19",
        "9"
      ],
      [
        "▁rese",
        "arch"
      ],
      [
        "e",
        "c"
      ],
      [
        "▁D",
        "o"
      ],
      [
        "▁e",
        "lect"
      ],
      [
        "▁ex",
        "pect"
      ],
      [
        "▁ind",
        "ividual"
      ],
      [
        "▁e",
        "le"
      ],
      [
        "▁su",
        "ccess"
      ],
      [
        "ri",
        "pt"
      ],
      [
        "j",
        "or"
      ],
      [
        "▁h",
        "ot"
      ],
      [
        "▁off",
        "er"
      ],
      [
        "og",
        "raph"
      ],
      [
        "▁soc",
        "ial"
      ],
      [
        "▁sh",
        "ort"
      ],
      [
        "▁lear",
        "n"
      ],
      [
        "▁of",
        "ten"
      ],
      [
        "▁be",
        "h"
      ],
      [
        "▁det",
        "ail"
      ],
      [
        "ard",
        "s"
      ],
      [
        "▁ne",
        "ar"
      ],
      [
        "p",
        "art"
      ],
      [
        "▁S",
        "te"
      ],
      [
        "▁c",
        "reat"
      ],
      [
        "▁b",
        "enef"
      ],
      [
        "ar",
        "ing"
      ],
      [
        "▁n",
        "et"
      ],
      [
        "▁W",
        "or"
      ],
      [
        "▁requ",
        "ire"
      ],
      [
        "▁",
        "es"
      ],
      [
        "or",
        "ies"
      ],
      [
        "at",
        "s"
      ],
      [
        ")",
        ".\n"
      ],
      [
        "t",
        "ed"
      ],
      [
        "▁ty",
        "p"
      ],
      [
        "▁m",
        "ult"
      ],
      [
        "y",
        "le"
      ],
      [
        "▁stud",
        "ents"
      ],
      [
        "▁che",
        "ck"
      ],
      [
        "in",
        "a"
      ],
      [
        "▁con",
        "c"
      ],
      [
        "as",
        "ter"
      ],
      [
        "iz",
        "ation"
      ],
      [
        "a",
        "im"
      ],
      [
        "▁J",
        "an"
      ],
      [
        "▁cre",
        "ate"
      ],
      [
        "-",
        "m"
      ],
      [
        "at",
        "ic"
      ],
      [
        "iet",
        "y"
      ],
      [
        "▁f",
        "ocus"
      ],
      [
        "ne",
        "y"
      ],
      [
        "▁eas",
        "y"
      ],
      [
        "os",
        "p"
      ],
      [
        "▁so",
        "ft"
      ],
      [
        "▁l",
        "and"
      ],
      [
        "▁d",
        "one"
      ],
      [
        "rib",
        "ut"
      ],
      [
        "▁p",
        "ast"
      ],
      [
        "▁m",
        "ove"
      ],
      [
        "▁are",
        "a"
      ],
      [
        "▁includ",
        "e"
      ],
      [
        "u",
        "ro"
      ],
      [
        "▁p",
        "ot"
      ],
      [
        "▁n",
        "on"
      ],
      [
        "▁em",
        "ploy"
      ],
      [
        "▁l",
        "a"
      ],
      [
        "▁l",
        "ow"
      ],
      [
        "ra",
        "p"
      ],
      [
        "▁tr",
        "ad"
      ],
      [
        "in",
        "c"
      ],
      [
        "▁st",
        "e"
      ],
      [
        "ure",
        "d"
      ],
      [
        "h",
        "n"
      ],
      [
        "▁A",
        "b"
      ],
      [
        "▁A",
        "fter"
      ],
      [
        "o",
        "k"
      ],
      [
        "ind",
        "ow"
      ],
      [
        "▁se",
        "veral"
      ],
      [
        "▁D",
        "es"
      ],
      [
        "▁ma",
        "kes"
      ],
      [
        "ain",
        "s"
      ],
      [
        "▁1",
        "4"
      ],
      [
        "▁Un",
        "iversity"
      ],
      [
        "ur",
        "s"
      ],
      [
        "is",
        "ing"
      ],
      [
        "▁profess",
        "ional"
      ],
      [
        "▁s",
        "ol"
      ],
      [
        "e",
        "."
      ],
      [
        "▁bec",
        "ome"
      ],
      [
        "r",
        "."
      ],
      [
        "a",
        "i"
      ],
      [
        "▁1",
        "6"
      ],
      [
        "iv",
        "ed"
      ],
      [
        "in",
        "ation"
      ],
      [
        "anc",
        "ial"
      ],
      [
        "▁pr",
        "ice"
      ],
      [
        "▁get",
        "ting"
      ],
      [
        "▁unt",
        "il"
      ],
      [
        "▁l",
        "ive"
      ],
      [
        "▁al",
        "read"
      ],
      [
        "▁M",
        "ed"
      ],
      [
        "v",
        "iron"
      ],
      [
        "y",
        "n"
      ],
      [
        "▁B",
        "r"
      ],
      [
        "le",
        "y"
      ],
      [
        "en",
        "n"
      ],
      [
        "▁H",
        "ome"
      ],
      [
        "s",
        "ide"
      ],
      [
        "▁t",
        "reat"
      ],
      [
        "▁s",
        "ide"
      ],
      [
        "▁c",
        "ou"
      ],
      [
        "▁partic",
        "ular"
      ],
      [
        "u",
        "ck"
      ],
      [
        "y",
        "l"
      ],
      [
        "▁c",
        "e"
      ],
      [
        "ut",
        "ure"
      ],
      [
        "▁f",
        "ore"
      ],
      [
        "r",
        "ation"
      ],
      [
        "▁opp",
        "ortun"
      ],
      [
        "▁d",
        "ra"
      ],
      [
        "▁St",
        "ate"
      ],
      [
        "u",
        "f"
      ],
      [
        "▁re",
        "ason"
      ],
      [
        "▁cle",
        "an"
      ],
      [
        "o",
        "ice"
      ],
      [
        "1",
        "2"
      ],
      [
        "▁le",
        "ft"
      ],
      [
        "it",
        "c"
      ],
      [
        "▁qu",
        "ick"
      ],
      [
        "n",
        "g"
      ],
      [
        "▁follow",
        "ing"
      ],
      [
        "▁me",
        "ans"
      ],
      [
        "o",
        "ber"
      ],
      [
        "▁exam",
        "ple"
      ],
      [
        "er",
        "r"
      ],
      [
        "▁person",
        "al"
      ],
      [
        "▁C",
        "he"
      ],
      [
        "it",
        "ing"
      ],
      [
        "▁D",
        "is"
      ],
      [
        "▁en",
        "ough"
      ],
      [
        "oo",
        "se"
      ],
      [
        "▁G",
        "od"
      ],
      [
        "'",
        "ve"
      ],
      [
        "▁e",
        "ver"
      ],
      [
        "▁l",
        "im"
      ],
      [
        "▁f",
        "und"
      ],
      [
        "▁f",
        "ar"
      ],
      [
        "▁ma",
        "jor"
      ],
      [
        "1",
        ","
      ],
      [
        "▁m",
        "ind"
      ],
      [
        "▁T",
        "ra"
      ],
      [
        "▁e",
        "t"
      ],
      [
        "▁alread",
        "y"
      ],
      [
        "our",
        "ce"
      ],
      [
        "▁to",
        "ol"
      ],
      [
        "▁com",
        "es"
      ],
      [
        "▁20",
        "20"
      ],
      [
        "▁commun",
        "ity"
      ],
      [
        "▁p",
        "ain"
      ],
      [
        "au",
        "gh"
      ],
      [
        "▁1",
        "7"
      ],
      [
        "▁t",
        "re"
      ],
      [
        "a",
        "ff"
      ],
      [
        "▁m",
        "ethod"
      ],
      [
        "ur",
        "y"
      ],
      [
        "▁me",
        "an"
      ],
      [
        "ir",
        "m"
      ],
      [
        "▁201",
        "7"
      ],
      [
        "▁N",
        "ot"
      ],
      [
        "▁rec",
        "ord"
      ],
      [
        "▁b",
        "rand"
      ],
      [
        "▁How",
        "ever,"
      ],
      [
        "▁pur",
        "ch"
      ],
      [
        "iqu",
        "e"
      ],
      [
        "▁spec",
        "ific"
      ],
      [
        "▁M",
        "ore"
      ],
      [
        "enc",
        "y"
      ],
      [
        "it",
        "her"
      ],
      [
        "▁P",
        "re"
      ],
      [
        "O",
        "R"
      ],
      [
        "ro",
        "p"
      ],
      [
        "▁st",
        "ore"
      ],
      [
        "▁",
        "*"
      ],
      [
        "ll",
        "ing"
      ],
      [
        "if",
        "t"
      ],
      [
        "el",
        "f"
      ],
      [
        "al",
        "f"
      ],
      [
        "▁st",
        "ay"
      ],
      [
        "S",
        "."
      ],
      [
        "▁be",
        "aut"
      ],
      [
        "▁1",
        "3"
      ],
      [
        "▁ac",
        "ross"
      ],
      [
        "ia",
        ","
      ],
      [
        "▁se",
        "ason"
      ],
      [
        "▁",
        "X"
      ],
      [
        "id",
        "s"
      ],
      [
        "t",
        "he"
      ],
      [
        "▁develop",
        "ment"
      ],
      [
        "▁off",
        "ic"
      ],
      [
        "▁count",
        "ry"
      ],
      [
        "▁we",
        "b"
      ],
      [
        "▁201",
        "8"
      ],
      [
        "▁ma",
        "ch"
      ],
      [
        "▁happ",
        "en"
      ],
      [
        "c",
        "."
      ],
      [
        "▁though",
        "t"
      ],
      [
        "l",
        "ished"
      ],
      [
        "▁do",
        "ing"
      ],
      [
        "▁mus",
        "ic"
      ],
      [
        "ill",
        "s"
      ],
      [
        "▁vide",
        "o"
      ],
      [
        "o",
        "pp"
      ],
      [
        "ur",
        "ity"
      ],
      [
        "▁ed",
        "uc"
      ],
      [
        "s",
        "w"
      ],
      [
        "ur",
        "ther"
      ],
      [
        "▁S",
        "erv"
      ],
      [
        "▁en",
        "s"
      ],
      [
        "▁con",
        "dition"
      ],
      [
        "▁inv",
        "ol"
      ],
      [
        "▁p",
        "ort"
      ],
      [
        "▁h",
        "old"
      ],
      [
        "▁cont",
        "act"
      ],
      [
        "▁ke",
        "y"
      ],
      [
        "▁O",
        "ct"
      ],
      [
        "..",
        ".."
      ],
      [
        "e",
        "x"
      ],
      [
        "▁per",
        "fect"
      ],
      [
        "uf",
        "act"
      ],
      [
        "▁f",
        "av"
      ],
      [
        "▁on",
        "ce"
      ],
      [
        "ver",
        "t"
      ],
      [
        "▁st",
        "ep"
      ],
      [
        "▁In",
        "st"
      ],
      [
        "c",
        "rib"
      ],
      [
        "▁rec",
        "omm"
      ],
      [
        "m",
        "ost"
      ],
      [
        "▁c",
        "amp"
      ],
      [
        "▁1",
        "00"
      ],
      [
        "-",
        "2"
      ],
      [
        "▁",
        ":"
      ],
      [
        "▁recomm",
        "end"
      ],
      [
        "▁d",
        "r"
      ],
      [
        "▁o",
        "cc"
      ],
      [
        "▁h",
        "ig"
      ],
      [
        "ion",
        "."
      ],
      [
        "▁t",
        "em"
      ],
      [
        "▁G",
        "u"
      ],
      [
        "▁2",
        "4"
      ],
      [
        "▁govern",
        "ment"
      ],
      [
        "▁",
        "vers"
      ],
      [
        "▁201",
        "9"
      ],
      [
        "ly",
        "."
      ],
      [
        "▁le",
        "ast"
      ],
      [
        "E",
        "N"
      ],
      [
        "os",
        "ed"
      ],
      [
        "▁p",
        "age"
      ],
      [
        "il",
        "ities"
      ],
      [
        "▁B",
        "u"
      ],
      [
        "▁product",
        "s"
      ],
      [
        "▁or",
        "ig"
      ],
      [
        "▁call",
        "ed"
      ],
      [
        "▁G",
        "r"
      ],
      [
        "▁pre",
        "p"
      ],
      [
        "id",
        "d"
      ],
      [
        "▁As",
        "s"
      ],
      [
        "ce",
        "ll"
      ],
      [
        "is",
        "ter"
      ],
      [
        "e",
        "ad"
      ],
      [
        "ir",
        "c"
      ],
      [
        "▁sing",
        "le"
      ],
      [
        "▁re",
        "du"
      ],
      [
        "▁c",
        "ity"
      ],
      [
        "ay",
        ","
      ],
      [
        "ob",
        "ile"
      ],
      [
        "i",
        ","
      ],
      [
        "n",
        "ow"
      ],
      [
        "▁e",
        "conom"
      ],
      [
        "▁M",
        "in"
      ],
      [
        "▁t",
        "imes"
      ],
      [
        "▁cle",
        "ar"
      ],
      [
        "1",
        "1"
      ],
      [
        "for",
        "d"
      ],
      [
        "c",
        "ript"
      ],
      [
        "ver",
        "age"
      ],
      [
        "▁c",
        "ame"
      ],
      [
        "▁it",
        "em"
      ],
      [
        "fe",
        "rence"
      ],
      [
        "▁w",
        "ar"
      ],
      [
        "ur",
        "ance"
      ],
      [
        "viron",
        "ment"
      ],
      [
        "b",
        "y"
      ],
      [
        "an",
        "e"
      ],
      [
        "▁201",
        "6"
      ],
      [
        "i",
        "od"
      ],
      [
        "▁cont",
        "ent"
      ],
      [
        "▁Q",
        "u"
      ],
      [
        "o",
        "ard"
      ],
      [
        "it",
        "or"
      ],
      [
        "▁2",
        "5"
      ],
      [
        "on",
        "es"
      ],
      [
        "▁com",
        "b"
      ],
      [
        "▁Jo",
        "hn"
      ],
      [
        "▁str",
        "ong"
      ],
      [
        "n",
        "es"
      ],
      [
        "ed",
        ".\n"
      ],
      [
        "▁char",
        "act"
      ],
      [
        "▁be",
        "gin"
      ],
      [
        "▁s",
        "ays"
      ],
      [
        "▁",
        "ident"
      ],
      [
        "▁c",
        "red"
      ],
      [
        "b",
        "all"
      ],
      [
        "▁comp",
        "et"
      ],
      [
        "▁m",
        "en"
      ],
      [
        "ur",
        "ch"
      ],
      [
        "ct",
        "or"
      ],
      [
        "▁In",
        "tern"
      ],
      [
        "▁f",
        "uture"
      ],
      [
        "erg",
        "y"
      ],
      [
        "g",
        "le"
      ],
      [
        "▁E",
        "m"
      ],
      [
        "▁",
        "..."
      ],
      [
        "▁val",
        "ue"
      ],
      [
        "▁v",
        "ol"
      ],
      [
        "▁pro",
        "b"
      ],
      [
        "▁sh",
        "are"
      ],
      [
        "▁sp",
        "ace"
      ],
      [
        "a",
        "ur"
      ],
      [
        "▁am",
        "ount"
      ],
      [
        "▁1",
        "."
      ],
      [
        "▁j",
        "o"
      ],
      [
        "▁indust",
        "ry"
      ],
      [
        "▁cons",
        "ider"
      ],
      [
        "▁wor",
        "ks"
      ],
      [
        "s",
        ":"
      ],
      [
        "al",
        ","
      ],
      [
        "▁s",
        "um"
      ],
      [
        "▁ty",
        "pe"
      ],
      [
        "▁c",
        "ell"
      ],
      [
        "▁d",
        "ue"
      ],
      [
        "▁p",
        "riv"
      ],
      [
        "▁Americ",
        "an"
      ],
      [
        "▁K",
        "e"
      ],
      [
        "ing",
        ".\n"
      ],
      [
        "ir",
        "l"
      ],
      [
        "A",
        "S"
      ],
      [
        "▁pos",
        "ition"
      ],
      [
        "▁G",
        "o"
      ],
      [
        "anc",
        "es"
      ],
      [
        "▁ret",
        "urn"
      ],
      [
        "le",
        "x"
      ],
      [
        "▁m",
        "om"
      ],
      [
        "ot",
        "s"
      ],
      [
        "▁A",
        "ug"
      ],
      [
        "at",
        "ural"
      ],
      [
        "▁str",
        "ateg"
      ],
      [
        "▁d",
        "i"
      ],
      [
        "is",
        "k"
      ],
      [
        "▁A",
        "pr"
      ],
      [
        "E",
        "D"
      ],
      [
        "▁b",
        "ody"
      ],
      [
        "!",
        "!"
      ],
      [
        "▁20",
        "21"
      ],
      [
        "▁off",
        "ers"
      ],
      [
        "▁s",
        "ound"
      ],
      [
        "▁P",
        "e"
      ],
      [
        "▁re",
        "le"
      ],
      [
        "▁se",
        "arch"
      ],
      [
        "▁dif",
        "f"
      ],
      [
        "▁f",
        "re"
      ],
      [
        "ib",
        "ility"
      ],
      [
        "▁cl",
        "ose"
      ],
      [
        "▁need",
        "s"
      ],
      [
        "A",
        "L"
      ],
      [
        "-",
        "0"
      ],
      [
        "▁an",
        "t"
      ],
      [
        "▁w",
        "ent"
      ],
      [
        "▁y",
        "et"
      ],
      [
        "▁f",
        "ield"
      ],
      [
        "ac",
        "y"
      ],
      [
        "▁wom",
        "en"
      ],
      [
        "an",
        "ks"
      ],
      [
        "▁c",
        "ard"
      ],
      [
        "▁Un",
        "ited"
      ],
      [
        "▁N",
        "ow"
      ],
      [
        "-",
        "l"
      ],
      [
        "p",
        "ly"
      ],
      [
        "▁m",
        "ot"
      ],
      [
        "▁B",
        "ro"
      ],
      [
        "▁c",
        "ut"
      ],
      [
        "il",
        "ar"
      ],
      [
        "▁app",
        "ear"
      ],
      [
        "▁b",
        "ar"
      ],
      [
        "▁resp",
        "ons"
      ],
      [
        "▁w",
        "a"
      ],
      [
        "▁stud",
        "y"
      ],
      [
        "s",
        "on"
      ],
      [
        "▁P",
        "M"
      ],
      [
        "▁g",
        "iven"
      ],
      [
        "▁kn",
        "own"
      ],
      [
        "▁min",
        "ut"
      ],
      [
        "il",
        "t"
      ],
      [
        "a",
        "pe"
      ],
      [
        "▁c",
        "ult"
      ],
      [
        "res",
        "ent"
      ],
      [
        "▁fun",
        "ction"
      ],
      [
        "as",
        "k"
      ],
      [
        "▁l",
        "ater"
      ],
      [
        "▁impro",
        "ve"
      ],
      [
        "▁comm",
        "on"
      ],
      [
        "ro",
        "du"
      ],
      [
        "▁am",
        "ong"
      ],
      [
        "e",
        "e"
      ],
      [
        "1",
        "8"
      ],
      [
        "▁r",
        "ange"
      ],
      [
        "▁br",
        "ing"
      ],
      [
        "▁hum",
        "an"
      ],
      [
        "▁h",
        "y"
      ],
      [
        "▁ab",
        "ove"
      ],
      [
        "▁start",
        "ed"
      ],
      [
        "id",
        "es"
      ],
      [
        "n",
        "ot"
      ],
      [
        "▁f",
        "ace"
      ],
      [
        "▁re",
        "pl"
      ],
      [
        "▁C",
        "or"
      ],
      [
        "▁add",
        "ress"
      ],
      [
        "▁to",
        "t"
      ],
      [
        "▁Re",
        "ad"
      ],
      [
        "ens",
        "ive"
      ],
      [
        "▁var",
        "ious"
      ],
      [
        "▁compan",
        "ies"
      ],
      [
        "▁who",
        "le"
      ],
      [
        "▁ch",
        "all"
      ],
      [
        "▁sign",
        "ific"
      ],
      [
        "oc",
        "u"
      ],
      [
        "▁fin",
        "ancial"
      ],
      [
        "▁it",
        ","
      ],
      [
        "▁quest",
        "ion"
      ],
      [
        "ir",
        "t"
      ],
      [
        "▁d",
        "ig"
      ],
      [
        "▁aut",
        "hor"
      ],
      [
        "led",
        "ge"
      ],
      [
        "f",
        "ull"
      ],
      [
        "▁e",
        "y"
      ],
      [
        "▁C",
        "al"
      ],
      [
        "▁p",
        "ack"
      ],
      [
        "▁st",
        "ory"
      ],
      [
        "▁su",
        "per"
      ],
      [
        "▁T",
        "w"
      ],
      [
        "▁M",
        "arch"
      ],
      [
        "▁fr",
        "ont"
      ],
      [
        "pecial",
        "ly"
      ],
      [
        "▁m",
        "il"
      ],
      [
        "ent",
        "al"
      ],
      [
        "▁some",
        "one"
      ],
      [
        "▁man",
        "ag"
      ],
      [
        "U",
        "S"
      ],
      [
        "▁A",
        "cc"
      ],
      [
        "▁w",
        "ond"
      ],
      [
        "▁5",
        "0"
      ],
      [
        "an",
        ","
      ],
      [
        "▁se",
        "en"
      ],
      [
        "u",
        "ff"
      ],
      [
        "▁whe",
        "ther"
      ],
      [
        "ru",
        "ction"
      ],
      [
        "▁inst",
        "all"
      ],
      [
        "▁mod",
        "el"
      ],
      [
        "f",
        "ort"
      ],
      [
        "▁em",
        "ail"
      ],
      [
        "▁Wh",
        "ile"
      ],
      [
        "it",
        "ch"
      ],
      [
        "ic",
        "ult"
      ],
      [
        "c",
        "he"
      ],
      [
        "ric",
        "t"
      ],
      [
        "▁I'",
        "ve"
      ],
      [
        "▁mem",
        "bers"
      ],
      [
        "]",
        "\n"
      ],
      [
        "w",
        "."
      ],
      [
        "▁he",
        "art"
      ],
      [
        "er",
        "al"
      ],
      [
        "▁U",
        "s"
      ],
      [
        "ore",
        "d"
      ],
      [
        "ie",
        "f"
      ],
      [
        "▁c",
        "al"
      ],
      [
        "th",
        "ough"
      ],
      [
        "il",
        "le"
      ],
      [
        "ast",
        "ic"
      ],
      [
        "▁",
        "z"
      ],
      [
        "ward",
        "s"
      ],
      [
        "um",
        "b"
      ],
      [
        "our",
        "n"
      ],
      [
        "id",
        "ence"
      ],
      [
        "▁P",
        "ol"
      ],
      [
        "▁l",
        "o"
      ],
      [
        "▁S",
        "ome"
      ],
      [
        "า",
        "ร"
      ],
      [
        "ี",
        "่"
      ],
      [
        "่",
        "า"
      ],
      [
        "อ",
        "ง"
      ],
      [
        "ท",
        "ี่"
      ],
      [
        "ก",
        "าร"
      ],
      [
        "▁",
        "เ"
      ],
      [
        "้",
        "า"
      ],
      [
        "ั",
        "น"
      ],
      [
        "ั",
        "บ"
      ],
      [
        "ด",
        "้"
      ],
      [
        "า",
        "ม"
      ],
      [
        "า",
        "ก"
      ],
      [
        "ร",
        "ะ"
      ],
      [
        "แ",
        "ล"
      ],
      [
        "่",
        "อ"
      ],
      [
        "า",
        "ย"
      ],
      [
        "ไ",
        "ด้"
      ],
      [
        "ื",
        "อ"
      ],
      [
        "้",
        "น"
      ],
      [
        "ใ",
        "น"
      ],
      [
        "็",
        "น"
      ],
      [
        "่",
        "ง"
      ],
      [
        "ใ",
        "ห"
      ],
      [
        "่",
        "น"
      ],
      [
        "เ",
        "ป"
      ],
      [
        "ม",
        "ี"
      ],
      [
        "แล",
        "ะ"
      ],
      [
        "ั",
        "ง"
      ],
      [
        "ี",
        "ย"
      ],
      [
        "ค",
        "ร"
      ],
      [
        "า",
        "น"
      ],
      [
        "ข",
        "อง"
      ],
      [
        "ม",
        "่"
      ],
      [
        "อ",
        "ย"
      ],
      [
        "▁",
        "ส"
      ],
      [
        "จ",
        "ะ"
      ],
      [
        "เ",
        "ล"
      ],
      [
        "ิ",
        "น"
      ],
      [
        "ค",
        "ว"
      ],
      [
        "ให",
        "้"
      ],
      [
        "ร",
        "า"
      ],
      [
        "ว",
        "่า"
      ],
      [
        "เป",
        "็น"
      ],
      [
        "อ",
        "น"
      ],
      [
        "ห",
        "น"
      ],
      [
        "ั",
        "ก"
      ],
      [
        "ม",
        "า"
      ],
      [
        "ป",
        "ระ"
      ],
      [
        "คว",
        "าม"
      ],
      [
        "ไ",
        "ม่"
      ],
      [
        "เ",
        "ก"
      ],
      [
        "ื",
        "่อ"
      ],
      [
        "ี",
        "้"
      ],
      [
        "้",
        "ง"
      ],
      [
        "ร",
        "ิ"
      ],
      [
        "่",
        "ว"
      ],
      [
        "ิ",
        "ด"
      ],
      [
        "ห",
        "ล"
      ],
      [
        "า",
        "ง"
      ],
      [
        "่า",
        "ง"
      ],
      [
        "ู",
        "้"
      ],
      [
        "▁",
        "แ"
      ],
      [
        "้",
        "อง"
      ],
      [
        "ร",
        "์"
      ],
      [
        "ร",
        "ับ"
      ],
      [
        "้",
        "อ"
      ],
      [
        "ไ",
        "ป"
      ],
      [
        "ต",
        "ั"
      ],
      [
        "น",
        "ี้"
      ],
      [
        "เ",
        "ด"
      ],
      [
        "เ",
        "ร"
      ],
      [
        "▁",
        "ก"
      ],
      [
        "ท",
        "ำ"
      ],
      [
        "อ",
        "ก"
      ],
      [
        "ว",
        "ย"
      ],
      [
        "จ",
        "าก"
      ],
      [
        "เ",
        "พ"
      ],
      [
        "ค",
        "ุ"
      ],
      [
        "▁",
        "และ"
      ],
      [
        "เ",
        "ข"
      ],
      [
        "ก",
        "ับ"
      ],
      [
        "่",
        "อง"
      ],
      [
        "ุ",
        "ด"
      ],
      [
        "ต",
        "ร"
      ],
      [
        "ั",
        "ด"
      ],
      [
        "▁",
        "โ"
      ],
      [
        "ว",
        "ิ"
      ],
      [
        "เ",
        "ท"
      ],
      [
        "ั",
        "้น"
      ],
      [
        "อ",
        "บ"
      ],
      [
        "น",
        "์"
      ],
      [
        "ผ",
        "ู้"
      ],
      [
        "ใ",
        "ช"
      ],
      [
        "อ",
        "า"
      ],
      [
        "▁",
        "บ"
      ],
      [
        "คุ",
        "ณ"
      ],
      [
        "ก",
        "ล"
      ],
      [
        "ต",
        "ิ"
      ],
      [
        "เ",
        "ว"
      ],
      [
        "▁",
        "ค"
      ],
      [
        "▁",
        "น"
      ],
      [
        "ก",
        "ร"
      ],
      [
        "ด",
        "ี"
      ],
      [
        "บ",
        "บ"
      ],
      [
        "อย",
        "่าง"
      ],
      [
        "เ",
        "ส"
      ],
      [
        "ท",
        "ั"
      ],
      [
        "อ",
        "ล"
      ],
      [
        "้า",
        "น"
      ],
      [
        "ต",
        "้อง"
      ],
      [
        "▁",
        "ห"
      ],
      [
        "ภ",
        "า"
      ],
      [
        "ู",
        "่"
      ],
      [
        "อ",
        "ร์"
      ],
      [
        "่า",
        "น"
      ],
      [
        "ึ",
        "ง"
      ],
      [
        "ร",
        "ี"
      ],
      [
        "ก",
        "ัน"
      ],
      [
        "▁",
        "พ"
      ],
      [
        "ม",
        "าก"
      ],
      [
        "ต",
        "่"
      ],
      [
        "ท",
        "ุ"
      ],
      [
        "้",
        "ว"
      ],
      [
        "ง",
        "าน"
      ],
      [
        "ื",
        "่อง"
      ],
      [
        "ก",
        "็"
      ],
      [
        "ึ",
        "่ง"
      ],
      [
        "่",
        "ม"
      ],
      [
        "ท",
        "าง"
      ],
      [
        "ตั",
        "ว"
      ],
      [
        "ส",
        "ิ"
      ],
      [
        "▁",
        "อ"
      ],
      [
        "ไ",
        "ล"
      ],
      [
        "ห",
        "ม"
      ],
      [
        "▁",
        "ร"
      ],
      [
        "อ",
        "ต"
      ],
      [
        "ล",
        "า"
      ],
      [
        "ค",
        "น"
      ],
      [
        "ล",
        "็"
      ],
      [
        "ด",
        "ย"
      ],
      [
        "็",
        "บ"
      ],
      [
        "่า",
        "ย"
      ],
      [
        "ว",
        "ัน"
      ],
      [
        "ใ",
        "จ"
      ],
      [
        "เล",
        "่น"
      ],
      [
        "ด้",
        "วย"
      ],
      [
        "ร",
        "ม"
      ],
      [
        "▁",
        "ที่"
      ],
      [
        "ไล",
        "น์"
      ],
      [
        "ใช",
        "้"
      ],
      [
        "ผ",
        "ล"
      ],
      [
        "ร",
        "ือ"
      ],
      [
        "้า",
        "ง"
      ],
      [
        "แล",
        "้ว"
      ],
      [
        "อน",
        "ไลน์"
      ],
      [
        "เ",
        "ม"
      ],
      [
        "ท",
        "ย"
      ],
      [
        "เ",
        "ง"
      ],
      [
        "ส",
        "ุด"
      ],
      [
        "ล็",
        "อต"
      ],
      [
        "าร",
        "ถ"
      ],
      [
        "ี่",
        "ย"
      ],
      [
        "ต",
        "่อ"
      ],
      [
        "าม",
        "ารถ"
      ],
      [
        "ู",
        "ก"
      ],
      [
        "ส",
        "ำ"
      ],
      [
        "เง",
        "ิน"
      ],
      [
        "เ",
        "ช"
      ],
      [
        "ิ",
        "ต"
      ],
      [
        "ล",
        "ง"
      ],
      [
        "▁",
        "จ"
      ],
      [
        "อ",
        "ด"
      ],
      [
        "▁เ",
        "พ"
      ],
      [
        "อ",
        "อนไลน์"
      ],
      [
        "ั",
        "ย"
      ],
      [
        "ทั",
        "้ง"
      ],
      [
        "ข",
        "ึ"
      ],
      [
        "ขึ",
        "้น"
      ],
      [
        "ี",
        "ก"
      ],
      [
        "ช",
        "า"
      ],
      [
        "้อ",
        "ม"
      ],
      [
        "▁",
        "ซ"
      ],
      [
        "ถ",
        "ึง"
      ],
      [
        "ท",
        "ี"
      ],
      [
        "เ",
        "ต"
      ],
      [
        "น",
        "า"
      ],
      [
        "เ",
        "ห"
      ],
      [
        "เข",
        "้า"
      ],
      [
        "บ",
        "ริ"
      ],
      [
        "ั",
        "ญ"
      ],
      [
        "ภา",
        "พ"
      ],
      [
        "ส",
        "ม"
      ],
      [
        "แ",
        "บบ"
      ],
      [
        "อย",
        "ู่"
      ],
      [
        "บ",
        "อล"
      ],
      [
        "▁",
        "การ"
      ],
      [
        "เก",
        "ม"
      ],
      [
        "▁",
        "ต"
      ],
      [
        "ห",
        "า"
      ],
      [
        "ส",
        "ามารถ"
      ],
      [
        "ทุ",
        "ก"
      ],
      [
        "ค",
        "า"
      ],
      [
        "ด",
        "ู"
      ],
      [
        "▁",
        "ป"
      ],
      [
        "ต",
        "์"
      ],
      [
        "หน",
        "้า"
      ],
      [
        "เ",
        "รา"
      ],
      [
        "เ",
        "น"
      ],
      [
        "เ",
        "จ"
      ],
      [
        "▁เ",
        "ป"
      ],
      [
        "้",
        "ำ"
      ],
      [
        "ม",
        "พ"
      ],
      [
        "ย",
        "ัง"
      ],
      [
        "ีย",
        "น"
      ],
      [
        "ส",
        "น"
      ],
      [
        "น",
        "ั้น"
      ],
      [
        "ึ",
        "ก"
      ],
      [
        "▁",
        "ม"
      ],
      [
        "▁",
        "ใน"
      ],
      [
        "ร",
        "ง"
      ],
      [
        "บ",
        "า"
      ],
      [
        "▁",
        "ข"
      ],
      [
        "ห",
        "รับ"
      ],
      [
        "▁",
        "ล"
      ],
      [
        "ฟ",
        "รี"
      ],
      [
        "ว",
        "น"
      ],
      [
        "เ",
        "คร"
      ],
      [
        "ช",
        "่ว"
      ],
      [
        "ไ",
        "ร"
      ],
      [
        "จ",
        "ำ"
      ],
      [
        "โ",
        "น"
      ],
      [
        "ค",
        "ล"
      ],
      [
        "ป",
        "ร"
      ],
      [
        "ั",
        "่น"
      ],
      [
        "่ว",
        "น"
      ],
      [
        "แ",
        "น"
      ],
      [
        "เพ",
        "ื่อ"
      ],
      [
        "ไ",
        "ทย"
      ],
      [
        "ีย",
        "ง"
      ],
      [
        "่อ",
        "น"
      ],
      [
        "ื",
        "้อ"
      ],
      [
        "▁โ",
        "ดย"
      ],
      [
        "ก",
        "ระ"
      ],
      [
        "่า",
        "ว"
      ],
      [
        "ณ",
        "์"
      ],
      [
        "ต",
        "าม"
      ],
      [
        "ส",
        "ร"
      ],
      [
        "▁แ",
        "ต่"
      ],
      [
        "ช",
        "น"
      ],
      [
        "▁",
        "มี"
      ],
      [
        "อ",
        "อก"
      ],
      [
        "า",
        "ว"
      ],
      [
        "น",
        "ัก"
      ],
      [
        "ิ",
        "ก"
      ],
      [
        "ิ",
        "จ"
      ],
      [
        "▁",
        "ไม่"
      ],
      [
        "▁ซ",
        "ึ่ง"
      ],
      [
        "ร",
        "ั"
      ],
      [
        "ิ",
        "ง"
      ],
      [
        "ก",
        "ำ"
      ],
      [
        "ษ",
        "า"
      ],
      [
        "ใน",
        "การ"
      ],
      [
        "ว",
        "ม"
      ],
      [
        "ส",
        "ู"
      ],
      [
        "น",
        "ัน"
      ],
      [
        "ว",
        "ก"
      ],
      [
        "ือ",
        "น"
      ],
      [
        "โ",
        "ล"
      ],
      [
        "ย",
        "์"
      ],
      [
        "ส",
        "ด"
      ],
      [
        "▁เป",
        "็น"
      ],
      [
        "เว",
        "็บ"
      ],
      [
        "ือ",
        "ก"
      ],
      [
        "ว",
        "ั"
      ],
      [
        "▁ส",
        "ล็อต"
      ],
      [
        "ต",
        "่าง"
      ],
      [
        "เท",
        "ศ"
      ],
      [
        "ให",
        "ม่"
      ],
      [
        "ล",
        "ะ"
      ],
      [
        "ร",
        "ู้"
      ],
      [
        "น",
        "ำ"
      ],
      [
        "▁เ",
        "ว"
      ],
      [
        "เล",
        "ย"
      ],
      [
        "▁เ",
        "ก"
      ],
      [
        "ื",
        "่น"
      ],
      [
        "ู",
        "ล"
      ],
      [
        "ก",
        "ว่า"
      ],
      [
        "▁",
        "ได้"
      ],
      [
        "คร",
        "ั"
      ],
      [
        "ทำ",
        "ให้"
      ],
      [
        "ห",
        "รือ"
      ],
      [
        "ห",
        "าร"
      ],
      [
        "▁ห",
        "รือ"
      ],
      [
        "▁",
        "ย"
      ],
      [
        "ช",
        "ี"
      ],
      [
        "ร",
        "ก"
      ],
      [
        "ว",
        "ง"
      ],
      [
        "เร",
        "ื่อง"
      ],
      [
        "พ",
        "ร"
      ],
      [
        "▁",
        "ด"
      ],
      [
        "ค",
        "้า"
      ],
      [
        "็",
        "ก"
      ],
      [
        "ตั",
        "้ง"
      ],
      [
        "ค",
        "ม"
      ],
      [
        "โ",
        "ดย"
      ],
      [
        "ส",
        "์"
      ],
      [
        "▁",
        "ช"
      ],
      [
        "แ",
        "ต่"
      ],
      [
        "ผ",
        "่าน"
      ],
      [
        "แ",
        "ท"
      ],
      [
        "เ",
        "อ"
      ],
      [
        "เ",
        "บ"
      ],
      [
        "า",
        "ส"
      ],
      [
        "ค",
        "าร"
      ],
      [
        "รา",
        "ะ"
      ],
      [
        "อ",
        "ีก"
      ],
      [
        "ที่",
        "สุด"
      ],
      [
        "ริ",
        "ง"
      ],
      [
        "ประ",
        "เทศ"
      ],
      [
        "เด",
        "ิ"
      ],
      [
        "จ",
        "ัด"
      ],
      [
        "ธ",
        "ิ"
      ],
      [
        "หล",
        "าย"
      ],
      [
        "มพ",
        "ัน"
      ],
      [
        "สำ",
        "หรับ"
      ],
      [
        "พ",
        "นัน"
      ],
      [
        "ส",
        "ล็อต"
      ],
      [
        "ที่",
        "จะ"
      ],
      [
        "▁เ",
        "ม"
      ],
      [
        "บ",
        "น"
      ],
      [
        "หล",
        "ัง"
      ],
      [
        "บริ",
        "การ"
      ],
      [
        "เ",
        "ซ"
      ],
      [
        "▁",
        "ถ"
      ],
      [
        "ส",
        "่วน"
      ],
      [
        "เ",
        "อง"
      ],
      [
        "เล",
        "ือก"
      ],
      [
        "ม",
        "ือ"
      ],
      [
        "ป",
        "ล"
      ],
      [
        "เ",
        "ย"
      ],
      [
        "8",
        "8"
      ],
      [
        "น",
        "้ำ"
      ],
      [
        "▁",
        "ท"
      ],
      [
        "จ",
        "ริง"
      ],
      [
        "ิ",
        "่ม"
      ],
      [
        "บ",
        "ุ"
      ],
      [
        "กร",
        "รม"
      ],
      [
        "แ",
        "ก"
      ],
      [
        "▁",
        "ๆ"
      ],
      [
        "▁บ",
        "า"
      ],
      [
        "▁เ",
        "ล"
      ],
      [
        "ป",
        "ี"
      ],
      [
        "ที่",
        "มี"
      ],
      [
        "ไ",
        "ซ"
      ],
      [
        "ช่ว",
        "ย"
      ],
      [
        "ร",
        "าย"
      ],
      [
        "สร",
        "้าง"
      ],
      [
        "ล",
        "ัง"
      ],
      [
        "ห",
        "ว"
      ],
      [
        "ด",
        "ับ"
      ],
      [
        "ไ",
        "ว"
      ],
      [
        "ุ",
        "ม"
      ],
      [
        "ครั",
        "้ง"
      ],
      [
        "สิ",
        "โน"
      ],
      [
        "หน",
        "ึ่ง"
      ],
      [
        "ไ",
        "ม"
      ],
      [
        "อ",
        "ะ"
      ],
      [
        "ส",
        "ั"
      ],
      [
        "ีย",
        "ว"
      ],
      [
        "า",
        "ะ"
      ],
      [
        "บ",
        "้าน"
      ],
      [
        "ณ",
        "ะ"
      ],
      [
        "ิ",
        "่ง"
      ],
      [
        "ส",
        "ุ"
      ],
      [
        "พ",
        "ิ"
      ],
      [
        "่ว",
        "ม"
      ],
      [
        "าร",
        "์"
      ],
      [
        "ได้",
        "รับ"
      ],
      [
        "ร",
        "ู"
      ],
      [
        "้",
        "อย"
      ],
      [
        "เข",
        "า"
      ],
      [
        "ค",
        "ือ"
      ],
      [
        "เก",
        "ิด"
      ],
      [
        "ธ",
        "ี"
      ],
      [
        "ถ",
        "ูก"
      ],
      [
        "แ",
        "ต"
      ],
      [
        "ี่ย",
        "ว"
      ],
      [
        "ให",
        "ญ"
      ],
      [
        "▁เพ",
        "ื่อ"
      ],
      [
        "ว",
        "ด"
      ],
      [
        "เห",
        "็น"
      ],
      [
        "▁เว",
        "็บ"
      ],
      [
        "▁20",
        "2"
      ],
      [
        "ต",
        "ุ"
      ],
      [
        "เว",
        "ลา"
      ],
      [
        "ต",
        "ิด"
      ],
      [
        "▁เก",
        "ม"
      ],
      [
        "=",
        "="
      ],
      [
        "ทุ",
        "น"
      ],
      [
        "เ",
        "ค"
      ],
      [
        "น",
        "ิ"
      ],
      [
        "พ",
        "ระ"
      ],
      [
        "ื",
        "อง"
      ],
      [
        "า",
        "ล"
      ],
      [
        "ั",
        "คร"
      ],
      [
        "รา",
        "คา"
      ],
      [
        "อา",
        "จ"
      ],
      [
        "สู",
        "ง"
      ],
      [
        "้า",
        "ย"
      ],
      [
        "ใหญ",
        "่"
      ],
      [
        "้",
        "ม"
      ],
      [
        "ค",
        "่"
      ],
      [
        "▁",
        "จะ"
      ],
      [
        "เร",
        "ียน"
      ],
      [
        "ว",
        "จ"
      ],
      [
        "ค",
        "์"
      ],
      [
        "ระ",
        "บบ"
      ],
      [
        "ุ",
        "่ม"
      ],
      [
        "โ",
        "ม"
      ],
      [
        "ร",
        "ร"
      ],
      [
        "เพ",
        "ิ่ม"
      ],
      [
        "เดิ",
        "มพัน"
      ],
      [
        "เ",
        "หล"
      ],
      [
        "ง",
        "่าย"
      ],
      [
        "ร",
        "ุ"
      ],
      [
        "▁ก",
        "็"
      ],
      [
        "ื",
        "น"
      ],
      [
        "ต",
        "้น"
      ],
      [
        "ค",
        "่า"
      ],
      [
        "ส",
        "่ง"
      ],
      [
        "ื",
        "้น"
      ],
      [
        "ท",
        "ร"
      ],
      [
        "ม",
        "ัน"
      ],
      [
        "า",
        "ศ"
      ],
      [
        "ที",
        "ม"
      ],
      [
        "หน",
        "ัง"
      ],
      [
        "บ",
        "ั"
      ],
      [
        "ธ",
        "ร"
      ],
      [
        "่อ",
        "ย"
      ],
      [
        "ค",
        "ำ"
      ],
      [
        "▁",
        "วัน"
      ],
      [
        "ไซ",
        "ต์"
      ],
      [
        "ั",
        "ส"
      ],
      [
        "ค",
        "ิด"
      ],
      [
        "▁เพ",
        "ราะ"
      ],
      [
        "ส",
        "ิน"
      ],
      [
        "▁",
        "ประ"
      ],
      [
        "เด",
        "ียว"
      ],
      [
        "เม",
        "ื่อ"
      ],
      [
        "วิ",
        "ธี"
      ],
      [
        "ท",
        "่าน"
      ],
      [
        "เคร",
        "ื่อง"
      ],
      [
        "ร",
        "ัก"
      ],
      [
        "เป",
        "ิด"
      ],
      [
        "ุ",
        "น"
      ],
      [
        "ลา",
        "ด"
      ],
      [
        "แ",
        "ข"
      ],
      [
        "ด",
        "ิต"
      ],
      [
        "▁",
        "ของ"
      ],
      [
        "ด",
        "้าน"
      ],
      [
        "หม",
        "าย"
      ],
      [
        "ธร",
        "รม"
      ],
      [
        "▁",
        "ผู้"
      ],
      [
        "แ",
        "ห"
      ],
      [
        "ผ",
        "ม"
      ],
      [
        "อ",
        "ม"
      ],
      [
        "้",
        "อน"
      ],
      [
        "▁ส",
        "ำ"
      ],
      [
        "เจ",
        "้า"
      ],
      [
        "ถ",
        "ือ"
      ],
      [
        "้อม",
        "ูล"
      ],
      [
        "เ",
        "ศ"
      ],
      [
        "ุ",
        "ต"
      ],
      [
        "ร",
        "ถ"
      ],
      [
        "ชา",
        "ติ"
      ],
      [
        "สิ",
        "่ง"
      ],
      [
        "เร",
        "็"
      ],
      [
        "ไว",
        "้"
      ],
      [
        "ส",
        "ถ"
      ],
      [
        "ย",
        "า"
      ],
      [
        "ล",
        "ูก"
      ],
      [
        "เส",
        "ีย"
      ],
      [
        "โล",
        "ก"
      ],
      [
        "ส",
        "ี"
      ],
      [
        "▁",
        "ให้"
      ],
      [
        "อา",
        "หาร"
      ],
      [
        "พ",
        "วก"
      ],
      [
        "แ",
        "ม"
      ],
      [
        "ั",
        "ว"
      ],
      [
        "ศ",
        "ึก"
      ],
      [
        "เก",
        "ี่ยว"
      ],
      [
        "โ",
        "ร"
      ],
      [
        "▁เ",
        "ร"
      ],
      [
        "ุ",
        "ก"
      ],
      [
        "ข",
        "้อ"
      ],
      [
        "อ",
        "ื่น"
      ],
      [
        "ส",
        "า"
      ],
      [
        "คาร",
        "่า"
      ],
      [
        "ที่",
        "ย"
      ],
      [
        "▁",
        "จาก"
      ],
      [
        "▁เม",
        "ื่อ"
      ],
      [
        "ิ",
        "ว"
      ],
      [
        "ด",
        "์"
      ],
      [
        "คร",
        "ับ"
      ],
      [
        "▁เ",
        "ข"
      ],
      [
        "ฝ",
        "าก"
      ],
      [
        "▁เ",
        "คร"
      ],
      [
        "ท",
        "ธิ"
      ],
      [
        "เป",
        "ล"
      ],
      [
        "บ",
        "ัน"
      ],
      [
        "รู",
        "ป"
      ],
      [
        "ข",
        "าย"
      ],
      [
        "ส",
        "าร"
      ],
      [
        "▁เ",
        "ช"
      ],
      [
        "▁ค",
        "า"
      ],
      [
        "ส",
        "ะ"
      ],
      [
        "ต้อง",
        "การ"
      ],
      [
        "วิ",
        "ต"
      ],
      [
        "ช่ว",
        "ง"
      ],
      [
        "ตร",
        "ง"
      ],
      [
        "ั",
        "ท"
      ],
      [
        "ม",
        "ิ"
      ],
      [
        "ไม่",
        "มี"
      ],
      [
        "ัก",
        "ษ"
      ],
      [
        "▁25",
        "6"
      ],
      [
        "ช",
        "ั่น"
      ],
      [
        "ไ",
        "ฟ"
      ],
      [
        "ส",
        "อบ"
      ],
      [
        "หม",
        "ด"
      ],
      [
        "น",
        "วน"
      ],
      [
        "ข",
        "้อมูล"
      ],
      [
        "แ",
        "รก"
      ],
      [
        "ริ",
        "่ม"
      ],
      [
        "เม",
        "ือง"
      ],
      [
        "ฐ",
        "าน"
      ],
      [
        "▁ส",
        "ม"
      ],
      [
        "หล",
        "ัก"
      ],
      [
        "ห",
        "์"
      ],
      [
        "ส",
        "บ"
      ],
      [
        "ต",
        "ล"
      ],
      [
        "ุ",
        "้น"
      ],
      [
        "ร",
        "วม"
      ],
      [
        "็",
        "ด"
      ],
      [
        "ม",
        "าย"
      ],
      [
        "ล",
        "อง"
      ],
      [
        "พ",
        "ื้น"
      ],
      [
        "โ",
        "ย"
      ],
      [
        "ส",
        "ง"
      ],
      [
        "คา",
        "สิโน"
      ],
      [
        "ธ",
        "ุ"
      ],
      [
        "เต",
        "อร์"
      ],
      [
        "ช",
        "ม"
      ],
      [
        "ก",
        "่อน"
      ],
      [
        "ซ",
        "ื้อ"
      ],
      [
        "เด",
        "ิน"
      ],
      [
        "ิ",
        "ล"
      ],
      [
        "พ",
        "ั"
      ],
      [
        "ก",
        "ิจ"
      ],
      [
        "ีย",
        "บ"
      ],
      [
        "แห",
        "่ง"
      ],
      [
        "ษ",
        "ัท"
      ],
      [
        "▁",
        "ความ"
      ],
      [
        "ชี",
        "วิต"
      ],
      [
        "ภ",
        "าย"
      ],
      [
        "แ",
        "จ"
      ],
      [
        "อ",
        "ั"
      ],
      [
        "็",
        "ม"
      ],
      [
        "ด",
        "ัง"
      ],
      [
        "ผล",
        "ิต"
      ],
      [
        "พร",
        "้อม"
      ],
      [
        "ไ",
        "หน"
      ],
      [
        "มี",
        "ความ"
      ],
      [
        "▁",
        "คุณ"
      ],
      [
        "มี",
        "การ"
      ],
      [
        "รั",
        "ฐ"
      ],
      [
        "▁ก",
        "ล"
      ],
      [
        "ไม่",
        "ได้"
      ],
      [
        "คว",
        "ร"
      ],
      [
        "เว็บ",
        "ไซต์"
      ],
      [
        "ค",
        "ัญ"
      ],
      [
        "อ",
        "ุ"
      ],
      [
        "ว่า",
        "จะ"
      ],
      [
        "ญ",
        "า"
      ],
      [
        "สด",
        "ง"
      ],
      [
        "แ",
        "พ"
      ],
      [
        "ี",
        "น"
      ],
      [
        "ท",
        "์"
      ],
      [
        "ประ",
        "ก"
      ],
      [
        "อะ",
        "ไร"
      ],
      [
        "เ",
        "ฉ"
      ],
      [
        "การ",
        "ณ์"
      ],
      [
        "▁",
        "ฟ"
      ],
      [
        "สำ",
        "คัญ"
      ],
      [
        "▁ป",
        "ี"
      ],
      [
        "ส",
        "มา"
      ],
      [
        "แ",
        "รง"
      ],
      [
        "เพ",
        "ียง"
      ],
      [
        "ตร",
        "วจ"
      ],
      [
        "โ",
        "ปร"
      ],
      [
        "น",
        "่า"
      ],
      [
        "กำ",
        "ลัง"
      ],
      [
        "▁",
        "มา"
      ],
      [
        "▁",
        "ว"
      ],
      [
        "ทำ",
        "งาน"
      ],
      [
        "ด",
        "ำ"
      ],
      [
        "ี่ย",
        "น"
      ],
      [
        "เห",
        "ตุ"
      ],
      [
        "▁สำ",
        "หรับ"
      ],
      [
        "โ",
        "ต"
      ],
      [
        "ต",
        "อน"
      ],
      [
        "ุ",
        "ง"
      ],
      [
        "ศึก",
        "ษา"
      ],
      [
        "▁พ",
        "ร"
      ],
      [
        "ร",
        "่วม"
      ],
      [
        "ทั",
        "่ว"
      ],
      [
        "รา",
        "ช"
      ],
      [
        "แ",
        "บ"
      ],
      [
        "▁เ",
        "ด"
      ],
      [
        "ที่",
        "ดี"
      ],
      [
        "ต",
        "า"
      ],
      [
        "▁บา",
        "ท"
      ],
      [
        "ต่าง",
        "ๆ"
      ],
      [
        "น",
        "ะ"
      ],
      [
        "ป",
        "ัญ"
      ],
      [
        "ช",
        "ิก"
      ],
      [
        "จ",
        "น"
      ],
      [
        "บ",
        "าง"
      ],
      [
        "ั",
        "่ง"
      ],
      [
        "▁เล",
        "่น"
      ],
      [
        "▁",
        "ดู"
      ],
      [
        "ใช",
        "้ง"
      ],
      [
        "ย",
        "ุ"
      ],
      [
        "ุต",
        "บอล"
      ],
      [
        "พั",
        "ฒ"
      ],
      [
        "ธ",
        "์"
      ],
      [
        "ย",
        "ม"
      ],
      [
        "▁พร",
        "้อม"
      ],
      [
        "ช",
        "ื่อ"
      ],
      [
        "ค",
        "ง"
      ],
      [
        "ต",
        "ร์"
      ],
      [
        "▁ร",
        "วม"
      ],
      [
        "โ",
        "รง"
      ],
      [
        "▁",
        "–"
      ],
      [
        "ใช้ง",
        "าน"
      ],
      [
        "สุ",
        "ข"
      ],
      [
        "อ",
        "ัน"
      ],
      [
        "ย",
        "น"
      ],
      [
        "เ",
        "ติ"
      ],
      [
        "ภ",
        "ัย"
      ],
      [
        "ของ",
        "คุณ"
      ],
      [
        "▁ค",
        "น"
      ],
      [
        "สิ",
        "ทธิ"
      ],
      [
        "เ",
        "ริ่ม"
      ],
      [
        "▁",
        "ทั้ง"
      ],
      [
        "ใ",
        "คร"
      ],
      [
        "ว่า",
        "ง"
      ],
      [
        "หม",
        "ือน"
      ],
      [
        "ลง",
        "ทุน"
      ],
      [
        "สถ",
        "าน"
      ],
      [
        "โ",
        "ด"
      ],
      [
        "ัง",
        "หว"
      ],
      [
        "เปล",
        "ี่ยน"
      ],
      [
        "ุ",
        "่น"
      ],
      [
        "ไ",
        "ข"
      ],
      [
        "▁บ",
        "อล"
      ],
      [
        "จ",
        "ุ"
      ],
      [
        "ใ",
        "ด"
      ],
      [
        "ระ",
        "ดับ"
      ],
      [
        "บั",
        "ติ"
      ],
      [
        "ท",
        "ะ"
      ],
      [
        "กล",
        "ับ"
      ],
      [
        "ย",
        "อด"
      ],
      [
        "ง",
        "บอล"
      ],
      [
        "ใ",
        "บ"
      ],
      [
        "ริ",
        "ม"
      ],
      [
        "▁สม",
        "ัคร"
      ],
      [
        "▁",
        "แล้ว"
      ],
      [
        "▁",
        "ด้วย"
      ],
      [
        "ล",
        "ด"
      ],
      [
        "นา",
        "ด"
      ],
      [
        "▁",
        ".."
      ],
      [
        "พ",
        "บ"
      ],
      [
        "ว",
        "าง"
      ],
      [
        "ชน",
        "ะ"
      ],
      [
        "ต",
        "ำ"
      ],
      [
        "อย",
        "าก"
      ],
      [
        "ข",
        "่าว"
      ],
      [
        "รา",
        "ง"
      ],
      [
        "สมา",
        "ชิก"
      ],
      [
        "เช",
        "ื่อ"
      ],
      [
        "เ",
        "อา"
      ],
      [
        "กล",
        "่าว"
      ],
      [
        "ห",
        "าก"
      ],
      [
        "▁",
        "ผล"
      ],
      [
        "ย",
        "าย"
      ],
      [
        "บา",
        "ท"
      ],
      [
        "ู",
        "น"
      ],
      [
        "▁ค",
        "ือ"
      ],
      [
        "▁บ",
        "ริ"
      ],
      [
        "ต",
        "ก"
      ],
      [
        "เช",
        "่น"
      ],
      [
        "ร",
        "อง"
      ],
      [
        "▁ห",
        "าก"
      ],
      [
        "ภ",
        "ู"
      ],
      [
        "▁",
        "ฟรี"
      ],
      [
        "เ",
        "ที่ย"
      ],
      [
        "ม",
        "น"
      ],
      [
        "▁202",
        "1"
      ],
      [
        "บา",
        "ล"
      ],
      [
        "ีย",
        "ด"
      ],
      [
        "แ",
        "สดง"
      ],
      [
        "มา",
        "ณ"
      ],
      [
        "ช",
        "อบ"
      ],
      [
        "ซ",
        "ี"
      ],
      [
        "จำ",
        "นวน"
      ],
      [
        "คร",
        "ง"
      ],
      [
        "ด",
        "า"
      ],
      [
        "วิ",
        "ทย"
      ],
      [
        "ข",
        "า"
      ],
      [
        "มาก",
        "มาย"
      ],
      [
        "วั",
        "ล"
      ],
      [
        "กล",
        "าง"
      ],
      [
        "็",
        "ต"
      ],
      [
        "น",
        "้อย"
      ],
      [
        "ส",
        "อง"
      ],
      [
        "ีย",
        "ม"
      ],
      [
        "ย",
        "าก"
      ],
      [
        "ย",
        "ะ"
      ],
      [
        "จ",
        "่าย"
      ],
      [
        "พัฒ",
        "นา"
      ],
      [
        "▁",
        ")"
      ],
      [
        "ต",
        "อบ"
      ],
      [
        "อยู่",
        "ใน"
      ],
      [
        "ซ",
        "ึ่ง"
      ],
      [
        "▁เ",
        "น"
      ],
      [
        "อก",
        "าส"
      ],
      [
        "แน",
        "ว"
      ],
      [
        "่า",
        "สุด"
      ],
      [
        "ู",
        "ด"
      ],
      [
        "เ",
        "หมือน"
      ],
      [
        "เกี่ยว",
        "กับ"
      ],
      [
        "เศ",
        "ษ"
      ],
      [
        "ป",
        "รับ"
      ],
      [
        "ปัญ",
        "หา"
      ],
      [
        "แ",
        "ผ"
      ],
      [
        "การ",
        "เล่น"
      ],
      [
        "ั",
        "จ"
      ],
      [
        "พ",
        "ัก"
      ],
      [
        "▁",
        "ไ"
      ],
      [
        "ล",
        "ิ"
      ],
      [
        "ก",
        "า"
      ],
      [
        "ตั",
        "ด"
      ],
      [
        "ใ",
        "ส"
      ],
      [
        "▁",
        "88"
      ],
      [
        "▁",
        "รับ"
      ],
      [
        "ผ",
        "ิด"
      ],
      [
        "ณ",
        "ฑ"
      ],
      [
        "ส",
        "ัง"
      ],
      [
        "กล",
        "ุ่ม"
      ],
      [
        "เ",
        "ภ"
      ],
      [
        "รก",
        "ิจ"
      ],
      [
        "สิน",
        "ค้า"
      ],
      [
        "้",
        "าร"
      ],
      [
        "ธุ",
        "รกิจ"
      ],
      [
        "▁เ",
        "รา"
      ],
      [
        "ฉ",
        "ัน"
      ],
      [
        "ท",
        "ัน"
      ],
      [
        "ให้",
        "บริการ"
      ],
      [
        "▁จ",
        "ำ"
      ],
      [
        "เร็",
        "ว"
      ],
      [
        "ังหว",
        "ัด"
      ],
      [
        "▁ก",
        "ับ"
      ],
      [
        "ตล",
        "อด"
      ],
      [
        "จ",
        "ึง"
      ],
      [
        "ราง",
        "วัล"
      ],
      [
        "จ",
        "ัก"
      ],
      [
        "สม",
        "ัคร"
      ],
      [
        "▁",
        "ทำ"
      ],
      [
        "ฏ",
        "ิ"
      ],
      [
        "เที่ย",
        "ว"
      ],
      [
        "ฤ",
        "ษ"
      ],
      [
        "ย",
        "ิ่ง"
      ],
      [
        "ได้",
        "อย่าง"
      ],
      [
        "แ",
        "ด"
      ],
      [
        "ข",
        "อ"
      ],
      [
        "▁",
        "อย่าง"
      ],
      [
        "เส",
        "น"
      ],
      [
        "วัน",
        "นี้"
      ],
      [
        "ก",
        "ัด"
      ],
      [
        "ห",
        "ัว"
      ],
      [
        "๊",
        "ก"
      ],
      [
        "เค",
        "ย"
      ],
      [
        "โ",
        "อกาส"
      ],
      [
        "แ",
        "ฟ"
      ],
      [
        "▁แ",
        "ท"
      ],
      [
        "ั",
        "พ"
      ],
      [
        "นัก",
        "งาน"
      ],
      [
        "ต",
        "น"
      ],
      [
        "แ",
        "ค่"
      ],
      [
        "โ",
        "อ"
      ],
      [
        "วัน",
        "ที่"
      ],
      [
        "เคร",
        "ดิต"
      ],
      [
        "สน",
        "ใจ"
      ],
      [
        "เด",
        "็ก"
      ],
      [
        "ต",
        "รา"
      ],
      [
        "จ",
        "ุด"
      ],
      [
        "▁ส",
        "่วน"
      ],
      [
        "ไม",
        "้"
      ],
      [
        "ี",
[...]
